{"var": 10806, "\u0120Moves": 39905, "Correction": 48349, "\u0120vain": 25876, "\u0120sticker": 26334, "\u0120Roads": 21201, "\u0120nuns": 34274, "\u0120discussed": 3373, "hum": 18257, "\u0120Prime": 1489, "\u0120450": 13411, "ilaterally": 45931, "\u0120cave": 12742, "capt": 18543, "\u0120identical": 14085, "\u0120indoctr": 40920, "\u0120Pill": 24722, "aimon": 46723, "ann": 2279, "ategor": 40918, "figured": 39607, "IRC": 44160, "\u0120boosting": 11606, "\u0120attachments": 30565, "ixture": 46368, "================================================================": 49936, "\u0120administered": 16556, "\u0120Gutenberg": 47327, "\u0120activity": 1940, "mid": 16079, "\u010a\u010a": 50140, "emed": 33578, "\u0120Californ": 19970, "\u0120DOC": 34330, "\u0120Editing": 1772, "\u0120facts": 4905, "588": 38318, "\u0120theatrical": 20720, "\u0120hesitant": 24668, "\u0120downloading": 28882, "hari": 32390, "\u0120empir": 46533, "\u0120ger": 18250, "\u0120faux": 27160, "________________________________": 40321, "\u0120maker": 4403, "astery": 42566, "\u0120Cao": 42714, "\u0120Rebell": 47045, "\u0120Compan": 44289, "\u0120procedural": 24126, "\u0120valve": 24423, "\u0120ptr": 49892, "\u0120Labour": 4165, "ko": 3852, "\u0120Fixed": 28092, "\u0120Christmas": 1619, "coins": 45335, "\u0120truths": 30079, "\u0120characteristic": 26293, "\u0120freelance": 18150, "google": 39367, "\u0120apostle": 46511, "yn": 3892, "\u0120estrogen": 39913, "s": 29, "\u0120time": 86, "\u0120dedicated": 3688, "%]": 48513, "press": 13447, "\u0120Claw": 44121, "\u0120malls": 21829, "Scientists": 40816, "\u0120post": 618, "\u0120manufacture": 15030, "\u0120mount": 14206, "\u0120Drum": 18165, "\u0120consumption": 4850, "\u0120Tight": 31589, "Enough": 41844, "amiya": 45554, "onut": 46371, "\u0120minister": 1269, "-(": 38203, "\u0120hig": 46519, "Reply": 49084, "\u00e2\u0137\u0132\u00e2\u0137\u0132": 49619, "\u0120booking": 12666, "\u0120clin": 13482, "\u0120Cave": 24651, "\u0120Barbara": 4810, "\u0120iodine": 45221, "\u0120Interior": 8867, "sth": 44668, "\u00e3\u0123\u00ae\u00e7": 49469, "\u0120shack": 26623, "\u0120same": 276, "chery": 26154, "ick": 1758, "ograph": 22731, "\u0120Agency": 3131, "\u0120mutations": 28513, "\u0120nasal": 35937, "\u0120filmmaker": 13321, "\u0120Prim": 15896, "iners": 14231, "time": 958, "\u0120Alonso": 15018, "\u0120racist": 7159, "\u0120Into": 20693, "athom": 29125, "\u0120notions": 32791, "\u0120initiated": 9608, "\u0120Contribut": 19507, "\u0120illuminated": 31843, "\u0120bizarre": 11676, "\u0120incremental": 16548, "\u0120drills": 13553, "\u0120precursor": 31892, "\u0120chipset": 33009, "\u0120Borough": 19618, "\u0120fungi": 40470, "\u0120Had": 7301, "\u0120Timeline": 41600, "irling": 25662, "\u0120dance": 3836, "\u0120operate": 4303, "\u0120accordingly": 14649, "\u0120Alternative": 22439, "\u0120Ay": 5847, "\u0120Rhode": 12374, "\u0120Create": 21384, "\u0120Redux": 47204, "\u0120UCH": 48074, "\u0120standby": 28611, "\u0120Gram": 14171, "\u0120explore": 5393, "igrant": 20593, "\u0120Marriage": 29795, "\u0120Weird": 39804, "\u0120jan": 10408, "\u0120clust": 46644, "\u0120overth": 32151, "mk": 43503, "]),": 48677, "\u0120overtly": 38394, "vernment": 43190, "votes": 45547, "\u0120cornerstone": 25995, "\u01201981": 14130, "\u0120seizures": 22107, "\u0120Shawn": 11325, "\u0120unconscious": 15003, "\u0120outl": 31187, "\u0120Lil": 14378, "\u0120Hawking": 27604, "loc": 26516, "\u0120Blade": 24619, "student": 34935, "\u0120forbids": 39847, "\u0120Gerr": 46466, "occupied": 22385, "isting": 15528, "\u0120carries": 5723, "\u0120calib": 34544, "Rep": 22026, "ographers": 30784, "\u0120RI": 29570, "\u0120rob": 16785, "\u0120Doctor": 12521, "cp": 30216, "\u0120witnessing": 20191, "\u0120WOR": 31534, "\u0120strives": 30761, "Color": 44287, "\u0120Vor": 22515, "OOOO": 47123, "\u0120municipality": 17300, "\u0120fingert": 46316, "\u0120spare": 10628, "ipper": 8288, "utch": 19162, "\u0120Above": 19935, "\u0120Comprehensive": 23539, "amar": 21216, "\u0120mocked": 21989, "\u0120ment": 12906, "\u0120Athena": 41360, "\u0120stead": 23789, "\u0120Vitamin": 31172, "\u0120Editors": 27966, "\u0120cance": 21338, "rome": 20169, "manac": 44569, "\u0120hooks": 31991, "October": 20144, "\u0120manually": 24704, "\u0120patrolling": 26706, "\u0120contem": 44634, "llah": 33511, "\u0120centers": 5228, "\u0120Lawson": 16074, "276": 31782, "802": 37674, "\u0120lifes": 30905, "\u0120circumference": 45028, "Aside": 45242, "\u0120Neph": 46079, "\u0120english": 47510, "\u0120chunks": 26521, "\u0120thing": 631, "\u0120induce": 28944, "\u0120psi": 46044, "ello": 10913, "\u0120furnace": 36574, "\u0120metabolic": 30798, "digital": 29563, "progress": 38265, "abiding": 35149, "Books": 38108, "\u0120memorial": 7041, "\u0120podcast": 8591, "\u0120Ju": 8873, "\u0120Syria": 1854, "\u0120pokemon": 49176, "Eastern": 39229, "Sov": 49246, "Init": 49368, "\u0120imposition": 28575, "sis": 20394, "ocene": 42416, "\u0120trained": 5389, "\u0120Dock": 25472, "DB": 10842, "\u0120nab": 21885, "\u0120honorary": 23536, "\u0120polit": 10635, "\u0120violin": 24896, "Gs": 28393, "\u0120debilitating": 29664, "\u0120medd": 31510, "\u0120276": 36803, "\u0120infinitely": 40489, "\u00ea": 46873, "Spawn": 49475, "Pie": 40941, "\u0120chanted": 23179, "\u0120Um": 12698, "\u0120blatant": 26248, "\u0120im": 4356, "\u0120composite": 14464, "\u0120Greenwood": 24048, "Weapons": 48637, "Have": 17781, "kan": 11334, "\u0120IB": 24998, "Thom": 33050, "ivated": 23907, "\u0120barbaric": 38025, "\u0120giants": 9863, "\u0120athletic": 7714, "undred": 38750, "true": 29225, "\u0120Wiley": 29701, "\u0120dads": 30173, "\u0120Warp": 46641, "\u0120linger": 18277, "choice": 24335, "\u0120founding": 10150, "\u0120Hawth": 24025, "\u0120Garc": 27908, "\u0120bacon": 18599, "lege": 37777, "393": 35408, "\u0107": 50115, "\u0120metaph": 41724, "\u0120Profile": 8993, "arten": 18567, "\u0120eaten": 18804, "\u0120remembrance": 30611, "OUNT": 34494, "\u0120rumor": 22677, "Bloomberg": 35450, "\u0120Grizz": 42281, "=-=-=-=-": 50028, "sl": 9996, "\u0120integrity": 7066, "Hay": 33203, "\u0120biscuits": 31729, "\u0120Watch": 3075, "oper": 8428, "\u0120Bahamas": 16672, "\u0120pretend": 17050, "\u0120Qian": 44069, "\u0120analysts": 1066, "\u0120bull": 8347, "\u0120*/": 48404, "jac": 39066, "\u0120diplomat": 12176, "\u0120reverber": 34254, "\u0120ceramic": 28238, "iris": 36533, "\u0120consultant": 8298, "\u0120pH": 39228, "ulates": 15719, "\u0120dwarves": 48253, "\u0120smaller": 2735, "\u0120son": 979, "\u0120conduct": 2883, "\u0120IA": 33995, "hands": 34055, "\u012009": 12087, "\u0120Gamer": 45670, "wal": 10163, "\u0120Atl": 29018, "RD": 34158, "\u0120grants": 7752, "\u0120Blink": 39897, "\u0120rendering": 22453, "ieft": 31916, "uli": 18425, "\u0120Advance": 17613, "responsive": 23401, "\u0120conversions": 30869, "193": 30995, "ences": 8457, "\u0120regulator": 8199, "\u0120solidarity": 11479, "dose": 35238, "success": 42776, "ebook": 46762, "\u0120isolate": 27038, "ottest": 43523, "\u0120slowdown": 9831, "interface": 47888, "\u0120hasht": 32795, "\u0120//[": 50018, "Gender": 46049, "\u0120ISP": 39421, "bin": 9413, "PE": 16035, "\u0120Nathaniel": 29299, "3333": 46152, "\u0120Mahjong": 48867, "lt": 7984, "\u0120deliberations": 21727, "\u0120ster": 43472, "reference": 45927, "\u0120\u00e2\u0139\u0131": 30022, "\u0120fisherman": 28783, "test": 21959, "\u0120Whedon": 44638, "\u0120cleaning": 8143, "Andre": 19950, "\u0120bet": 5673, "\u0120REPORT": 13060, "odiac": 33903, "\u0120pursuit": 8747, "\u0120mates": 18779, "\u0120promulg": 39957, "ogenesis": 43333, "\u0120symmetry": 43769, "backs": 6205, "atch": 11175, "1982": 44133, "ulp": 31777, "iment": 8913, "\u0120Universities": 27218, "\u0120humanoid": 44350, "\u0120circumst": 42755, "wo": 14869, "buff": 43637, "\u0120homepage": 28697, "philis": 42298, "\u0120ammunition": 12691, "\u0120opponent": 5254, "\u0120girlfriend": 6096, "\u0120erected": 23594, "\u0120briefly": 7478, "\u0120TECH": 34945, "aha": 11695, "wind": 9428, "\u0120overest": 39694, "\u0120Hy": 8851, "urd": 6831, "\u0120implant": 26574, "\u0120aggreg": 26683, "585": 34921, "button": 32135, "Jere": 47647, "nw": 45372, "ude": 6343, "digit": 10289, "\u01201975": 14873, "\u0120dep": 8273, "SU": 10466, "cling": 21050, "Washington": 22247, "\u0120singular": 23429, "\u0120Ruk": 24542, "\u0120Emergency": 6824, "acial": 27015, "\u0120Login": 38927, "\u0120depart": 18770, "\u0120Tracks": 41902, "\u0120reincarn": 43792, "\u0120SLI": 46819, "\u0120supremacists": 24688, "\u0120Cotton": 15416, "PRESS": 27177, "god": 31858, "retion": 32695, ";;": 48640, "browser": 48024, "\u0120mem": 26012, "\u0120tolerant": 32836, "\u0120sulf": 37477, "Newsletter": 48928, "\u0120istg": 49913, "dll": 48962, "\u0120Exp": 12806, "\u0120Guan": 36775, "gard": 20474, "immers": 17903, "\u0120disturbing": 11783, "crit": 35031, "\u0120pesky": 38432, "\u0120Piece": 40689, "\u0120interchangeable": 40627, "\u0120Same": 17754, "\u0120Ced": 23067, "30": 541, "ravis": 39211, "\u0120airst": 43120, "\u0120TS": 12932, "ilver": 43206, "\u0120per": 228, "\u0120Cell": 13696, "humans": 44734, "\u0120nails": 20941, "\u0120infiltrated": 37858, "\u0120expressions": 17528, "\u0120Colbert": 20269, "thal": 27534, "\u0120weeds": 28292, "\u0120Router": 46751, "\u0120Cavs": 14427, "Twitter": 22838, "\u0120annexation": 26078, "\u0120market": 210, "\u0120questions": 1142, "\u012028": 971, "fired": 15361, "cular": 32188, "memory": 44290, "\u0120style": 2496, "wav": 48479, "ashing": 8141, "\u0120Saunders": 18180, "\u0120Jun": 6752, "\u0120conceal": 21415, "\u0120extends": 14269, "\u0120flat": 3269, "icing": 16483, "Police": 9497, "\u0120Sob": 21055, "icon": 17505, "\u0120luc": 23478, "\u0120guarding": 29454, "oter": 31718, "ISE": 18819, "Max": 19854, "\u0120Danger": 34880, "\u0120deterrence": 35631, "\u0120Expand": 13995, "\u0120Register": 10315, "\u0120productive": 8737, "\u0120Tsu": 42070, "\u0120throne": 20007, "\u0120Gru": 13151, "Northern": 37982, "\u0120elephants": 22791, "Dean": 42862, "\u0120Pattern": 42762, "a": 102, "\u0120entrepreneurship": 21311, "\u0120Phar": 44286, "\u0120archetype": 46186, "clude": 46962, "\u0120person": 621, "\u0120rebuke": 28155, "\u0120Panthers": 6495, "loader": 45910, "\u0120farming": 9698, "\u0120prior": 2052, "\u0120contingency": 24584, "kel": 5576, "\u0120over": 81, "\u0120\u00e2\u013a": 42699, "ocracy": 30129, "\u0120Neb": 23197, "\u0120females": 16856, "\u0120grim": 17081, "\u0120studied": 8069, "\u0120Prison": 15591, "ctor": 24427, "There": 970, "iction": 26579, "\u0120routing": 33819, "\u0120Gar": 4974, "\u0120ballpark": 25287, "\u0120Bless": 36183, "imilar": 36692, "\u0120animations": 39952, "\u0120thee": 43419, "drops": 40377, "ave": 4097, "\u01201977": 15386, "\u0120freedom": 3519, "imen": 34620, "\u0120gene": 10596, "uno": 25217, "igs": 15409, "posing": 29105, "\u0120resurg": 34269, "\u0120Imm": 14000, "\u0120seeks": 6330, "\u0120serv": 18527, "\u0120brief": 4315, "\u0120Kavanaugh": 5164, "iem": 9173, "\u0120oy": 23136, "\u0120trout": 26136, "\u0120Looks": 26646, "pol": 19028, "\u0120partnering": 15882, "zech": 40516, "\u0120Trayvon": 41571, "\u0120genomic": 41217, "assets": 44922, "\u0120Dir": 32024, "\u0120Wheel": 23198, "\u0120Prix": 11761, "exempt": 35531, "iably": 37217, "\u0120ponder": 31930, "\u0120perceived": 9568, "\u0143\u00b7": 49929, "Turkish": 37300, "\u0120Kum": 19287, "\u0120presents": 6822, "\u0120mend": 19300, "\u0120Nike": 10239, "onds": 25343, "\u0120turbulence": 28742, "\u0120lockdown": 23076, "\u0120bleeding": 13162, "andre": 34537, "\u0120Accountability": 23572, "\u0120consulate": 17127, "vy": 11454, "\u0120Quincy": 24366, "Anne": 30678, "\u0120Recorded": 42512, "arest": 18759, "\u0120crates": 40973, "Champ": 43225, "\u0120Ell": 8961, "client": 38557, "\u0120dich": 32325, "\u0120rehe": 35745, "\u0120always": 460, "\u0120Daily": 1681, "Ne": 14563, "\u0120reflect": 4227, "popular": 34410, "\u0120Wembley": 15101, "\u0120overr": 34685, "\u0120crypto": 21416, "Sax": 44657, "tone": 32612, "\u0120abstinence": 42570, "\u0120Overs": 43501, "\u0120\u00f0\u0141\u013a": 17841, "\u0120embedded": 14224, "\u0120aspects": 5894, "user": 12105, "\u0120Mats": 20831, "\u0120Diplom": 24921, "\u0120dotted": 30176, "\u0120disenfranch": 34031, "\u0120JPMorgan": 9934, "TN": 34521, "\u0120\u00e1": 25974, "\u0120Monitoring": 23853, "ymes": 33318, "Bruce": 39146, "\u0120SECTION": 39274, "\u0120Sodium": 43382, "\u0120Purg": 47487, "Phot": 41612, "\u00d7\u013b": 48177, "\u0120Brisbane": 10157, "\u0120HERE": 9443, "castle": 24773, "oleon": 47140, "\u0120Fathers": 38710, "_(": 48124, "\u0120Health": 1309, "\u0120Pall": 18612, "\u0120Phys": 27592, "\u0120Chi": 12718, "\u0120popularity": 7347, "\u0120WikiLeaks": 18568, "\u0120tablespoon": 29387, "hent": 37754, "Typ": 47572, "nergy": 38234, "ou": 1438, "\u0120Stream": 16183, "\u0120capturing": 16153, "\u0120Alliance": 6035, "\u0120improvised": 29996, "><": 49007, "\u0120ethnic": 7289, "determination": 32962, "FAQ": 48685, "\u0120lovers": 13148, "\u00e3\u0124\u00bd": 49808, "mur": 20541, "\u0120Wel": 15565, "\u0120voicing": 31019, "\u0120sulph": 32494, "\u0120editorial": 8161, "\u0120freed": 14313, "\u0120quantify": 30127, "\u0120team": 165, "vo": 5766, "\u0120FS": 21218, "asks": 40981, "\u0120Mandatory": 28666, "\u0120segments": 5561, "\u0120beautifully": 16467, "\u0120Doodle": 44686, "\u0120Kiev": 15200, "\u0120convey": 15451, "\u0120Marty": 20360, "\u0120risky": 11788, "gem": 23922, "\u0120Creator": 36168, "\u0120variant": 17390, "choes": 48932, "\u00d1": 22063, "\u0120chatter": 29205, "\u0120NI": 17378, "\u0120XCOM": 48043, "\u0120goaltender": 18950, "leases": 14931, "\u0120Noise": 36330, "\u0120sells": 7683, "uit": 6439, "\u0120LDL": 42397, "\u0120masked": 24397, "594": 38911, "\u0120Seraph": 45389, "\u0120SWAT": 26304, "Armor": 47936, "ageddon": 46573, "oren": 15904, "?'": 6600, "\u0120Hebrew": 27428, "\u0120sanction": 19334, "\u0120enhancing": 15550, "cloneembedreportprint": 50172, "\u0120Chocolate": 22304, "\u0120deadliest": 16751, "ossible": 31497, "\u0120Sent": 12169, "\u0120quest": 9794, "black": 14178, "projects": 41557, "\u0120Surge": 42716, "\u0120Raider": 34134, "\u0120appealed": 9826, "stru": 23543, "\u0120Unt": 32330, "\u0120Sabres": 21995, "\u0120sincere": 19255, "\u0120massac": 42003, "kees": 41563, "\u0120920": 37543, "\u0120gunshot": 12167, "\u0120gruesome": 25988, "\u0120gloss": 27293, "\u0120env": 16028, "abies": 23128, "\u0120reset": 18821, "\u0120Hamburg": 17938, "\u0120economy": 866, "\u0120imposing": 13223, "\u0120Bro": 4994, "\u0120Bruno": 14590, "\u0120basil": 32394, "\u0120visa": 8915, "\u0120cozy": 23889, "\u0120reached": 1348, "\u0120powder": 10477, "hemoth": 32358, "\u0120Riley": 9817, "\u0120separation": 10875, "\u0120Constitutional": 18221, "\u0120Ta": 9002, "\u0120cartel": 22001, "\u0120constitutes": 21395, "\u0120precise": 12548, "\u0120revolution": 7977, "amon": 22704, "\u0120deg": 31295, "911": 37157, "\u0120combust": 36923, "lest": 35230, "\u0120inference": 42752, "\u0120virus": 6793, "\u0120saw": 794, "\u0120Execution": 44396, "\u0120Sovere": 47363, "wa": 2739, "\u0120factors": 2433, "CPU": 47378, "\u0120Jonas": 16732, "\u0120databases": 22578, "\u0120Engineer": 24379, "\u0120debating": 24996, "ettlement": 43058, "\u0120Brah": 28895, "\u0120legalizing": 32722, "\u0120online": 804, "013": 37129, "\u0120Day": 1053, "\u0120Research": 1624, "\u0120II": 3082, "\u0120breast": 6181, "\u0120reaches": 11541, "\u0120Meet": 11869, "\u0120Roosevelt": 17800, "\u0120Advoc": 19227, "\u0120Ashton": 20733, "\u0120accelerated": 13072, "\u0120denounced": 16978, "\u0120dominates": 28028, "kw": 33294, "udden": 37710, "\u0120studio": 4535, "\u0120Airways": 13337, "Le": 10350, "\u0120underway": 6159, "ivil": 41868, "xd": 46140, "\u0120Filter": 41263, "batch": 35001, "Defense": 39049, "\u0120objectively": 37883, "\u0120Ach": 23790, "\u0120sculpt": 21546, "\u0120deepen": 23176, "\u0120acquiring": 6819, "\u0120ha": 2489, "\u0120OM": 23765, "Bring": 34306, "Der": 34788, "\u0120contradicted": 35407, "pared": 33160, "\u0120coordinated": 13662, "map": 32557, "\u0120hint": 11602, "\u0120Guerrero": 23212, "Pass": 20340, "impro": 33491, "\u0120antioxidants": 36869, "\u0120intellectuals": 37306, "\u0120formidable": 18213, "lasses": 40664, "\u0120Leica": 43247, "\u0120525": 38305, "\u0120Ger": 7965, "itsch": 28046, "\u0120slashed": 16900, "111": 17500, "\u0120Killed": 36143, "rendered": 47392, "\u0120simultane": 49132, "\u00e5\u00b9": 47168, "quished": 49350, "\u0120probability": 18102, "\u0120antics": 24728, "\u0120Wald": 15371, "\u01202015": 570, "\u0120WWE": 5233, "\u0120precious": 9761, "\u0120plausible": 27099, "\u0120Indie": 35890, "\u0120Argon": 39324, "\u0120???": 44942, "\u0120Bender": 36493, "\u0120counts": 3948, "\u0120rigging": 28591, "\u0120plur": 46005, "\u0120HK": 19315, "raints": 43148, "\u0120Sister": 18319, "\u0120An": 660, "\u0120bound": 8191, "\u0120Uri": 35034, "URI": 42338, "Asia": 20892, "\u0120tying": 13024, "\u0120washed": 15158, "\u0120Enough": 28502, "\u0120URI": 45802, "ria": 6374, "\u0120handsome": 19222, "organized": 29835, "\u0120austerity": 15498, "\u0120disob": 43738, "\u0120Bucks": 12770, "\u0120inequ": 34983, "\u0120pencil": 21451, "\u0120validated": 29548, "\u0120Gloss": 43028, "paren": 45208, "Da": 32259, "\u0120festivities": 15972, "\u0120longer": 1181, "\u0120Brilliant": 39769, "perate": 29739, "snap": 43189, "\u0120ICE": 9964, "\u0120Associated": 1562, "ient": 4843, "\u0120willingness": 10640, "\u0120em": 2841, "\u0120Herman": 14358, "Free": 18074, "\u0120progressing": 20307, "\u0120journey": 3251, "ht": 6083, "eers": 32596, "\u0120Innocent": 40797, "Password": 44917, "umeric": 46990, "\u0120Picture": 5311, "FTWARE": 49425, "ocr": 32508, "\u0120Products": 9467, "Vers": 45399, "\u0120rehabilitation": 11226, "\u0120adopting": 15059, "\u0120Tea": 16577, "breeding": 44185, "Bytes": 48968, "\u0120KING": 34835, "\u0120With": 590, "path": 22609, "285": 26373, "When": 1779, "\u0120Closing": 30617, "\u0120Frankie": 23447, "\u0120Pierce": 13891, "\u0120Juliet": 21432, "Click": 22473, "mem": 25683, "\u0120Idea": 28795, "\u0120inhibitors": 34596, "\u0120Freedom": 7978, "\u0120Instruction": 41241, "\u0120prosecut": 42308, "dding": 42753, "Oregon": 35287, "\u0120spew": 29400, "\u0120Winged": 46784, "\u0120hashes": 48231, "SpaceEngineers": 50175, "\u0120relics": 41032, "Row": 43277, "\u0120explanatory": 45310, "\u0120Conrad": 24078, "\u0120ep": 14887, "\u0120waters": 5794, "\u0120bob": 22401, "\u0120Sop": 31403, "\u0120classification": 20257, "270": 21063, "\u0120inflated": 25013, "FA": 5944, "\u0120national": 632, "\u00ce\u00b5": 47016, "\u0120oranges": 37027, "wolves": 41459, "\u0120mapped": 33493, "\u0120bunker": 25279, "ivals": 34181, "Phoenix": 41932, "rating": 21172, "ef": 4550, "where": 8569, "\u0120culinary": 16820, "\u0120gloom": 31752, "\u0120boyfriend": 6578, "\u0120Frem": 18663, "uty": 27237, "icularly": 45555, "\u0120Know": 10690, "\u0120outright": 12162, "\u01202005": 4013, "\u0120favorites": 11929, "\u0120entrenched": 24581, "\u0120Judith": 27479, "\u0120Glenn": 8583, "\u0120gadget": 29580, "\u0120genetically": 24576, "\u0120Track": 13758, "\u0120roaming": 25783, "stood": 31935, "\u0120immoral": 33231, "\u0120antioxidant": 41019, "=$": 45946, "mint": 30732, "iga": 11742, "insured": 43107, "\u0120beacon": 30943, "\u0124\u00ac": 49171, "\u0120.\"": 39058, "\u0120proliferation": 24739, "asant": 35392, "\u0120contemplate": 32848, "Sup": 41192, "Sun": 8816, "rapnel": 36259, "RAL": 22881, "\u0120leak": 9324, "jud": 12864, "\u0120shif": 37503, "\u0120PRESS": 22980, "\u0120railing": 35376, "\u0120Airbnb": 16315, "\u0120enlightenment": 42140, "Prop": 41895, "Warren": 41914, "properties": 47276, "\u0120$_": 49755, "\u0120Carlos": 6778, "\u0120Gri": 27964, "atorium": 37856, "\u0120Sure": 9136, "\u012075": 3337, "\u0120shotguns": 42917, "Allah": 45077, "\u0120Sonny": 23202, ";}": 48803, "\u0120organic": 6523, "Web": 27521, "Myth": 48162, "ptive": 46209, "\u0120Clifford": 20791, "\u0120criminal": 1837, "Ry": 43031, "ATES": 27704, "\u0120embryonic": 43982, "\u0120Moving": 15008, "Grant": 41793, "\u0120efficiency": 5838, "\u0120deteriorating": 22010, "\u0120Regulatory": 18193, "\u0120stroll": 24808, "\u0120safest": 25026, "\u0120emulate": 26088, "\u0120=": 5457, "\u0120det": 6769, "\u01201905": 40849, "\u0120Template": 48358, "\u0120travels": 12524, "hirt": 28517, "\u0120west": 3072, "skirts": 48507, "\u0120Glad": 15151, "\u01201967": 13025, "\u0120Churchill": 16930, "\u0120instincts": 24467, "\u0120Buccaneers": 18794, "\u0120regretted": 27611, "\u0120comb": 14960, "\u0120utilizing": 21437, "\u0120marginally": 24022, "\u0120booked": 7512, "Govern": 22469, "HO": 30542, "\u0120Terry": 6840, "---": 24965, "prim": 31044, "NECT": 42849, "FH": 43316, "\u0120370": 27173, "Impro": 46101, "Safe": 32356, "\u0120multi": 3228, "\u0120Isaiah": 16473, "rule": 28523, "\u0120circadian": 43079, "\u0120splend": 45990, "ITNESS": 46094, "\u00e3\u0122\u0133": 49287, "oo": 3036, "\u0120theme": 4782, "\u0120Orchestra": 18200, "\u0120Load": 38355, "expl": 23242, "\u0120Petr": 27239, "\u0120Murd": 28109, "\u0120vert": 33566, "\u0120gas": 1123, "\u0120assessment": 4990, "\u0120writ": 25859, "\u0120insistence": 24974, "\u0120Stack": 31197, "Marg": 40420, "Anderson": 41186, "Behind": 43414, "\u0120termed": 20295, "Ped": 39690, "\u0120venue": 5584, "\u0120Readers": 23148, "ructose": 47631, "\u0120distractions": 26434, "\u0120photos": 2356, "rising": 37592, "nick": 16346, "\u0120severe": 3814, "\u0120Wes": 15590, "\u0120Wedding": 21238, "\u0120nationality": 26241, "\u0120Wyn": 15523, "agna": 33281, "\u0120read": 1166, "\u0120calendar": 7127, "Hy": 30811, "\u0120ISIL": 31849, "\u0120sneak": 16082, "\u0120trying": 667, "\u0120Span": 28967, "\u0120heard": 1317, "\u0120complicate": 29036, "\u0120narrow": 6787, "\u0120misrepresent": 24796, "PC": 4794, "\u0120reserves": 5880, "\u0120narr": 33316, "\u00ce\u00bf": 46122, "Internal": 47666, "layout": 48842, "\u0120GT": 11045, "\u0120caus": 37771, "\u0120Hats": 42368, "ops": 5090, "chen": 8224, "\u0120Sadd": 27530, "ville": 1352, "\u0120returned": 1835, "\u0120flooded": 10290, "Platform": 46960, "jiang": 20852, "\u0120meddling": 13683, "id": 808, "\u0120animal": 3477, "\u0120Stoke": 15607, "\u0120Holder": 20198, "\u0133\u00e5\u00a3\u00ab": 50211, "\u0120Neither": 9081, "lash": 42044, "\u0120Jaune": 49194, "\u0120sentiments": 18316, "\u0120organise": 23750, "\u0120Cle": 8388, "andon": 19490, "\u0120conducive": 27273, "anza": 19209, "\u0120Kah": 22021, "\u0120stark": 12664, "\u0120HAR": 32721, "\u0120correlate": 42407, "ardless": 44543, "message": 44773, "\u0120mural": 21281, "\u0120capacitor": 47403, "Ku": 43158, "\u0120corrupt": 10334, "\u0120reopened": 14015, "\u0120fu": 14429, "\u0120organisers": 16180, "\u0120Renaissance": 19797, "\u0120pi": 19982, "\u0120Sweet": 10959, "nt": 3999, "media": 5535, "\u0120conflicting": 22757, "ocratic": 23337, "\u0120161": 27965, "\u0120reintrodu": 28208, "\u0120justifying": 38670, "\u0120stared": 32392, "\u0120electroly": 39875, "\u0120Advanced": 12386, "Bear": 40237, "\u0120Association": 1544, "240": 18847, "\u0120Extensions": 46942, "\u0120constrained": 26525, "\u0120cav": 32426, "\u0120Team": 2711, "asty": 19626, "\u0120eminent": 33015, "\u0120absurdity": 40020, "\u0120decor": 12489, "\u0120Comed": 32200, "\u0120investor": 3942, "util": 32843, "\u0120ssh": 48421, "uploads": 12799, "\u0120cu": 3729, "\u0120left": 314, "\u0120fought": 4951, "zzle": 26216, "\u0120merging": 29002, "\u0120chlorine": 32457, "GPU": 44753, "\u0120liquor": 13782, "\u0120paranormal": 41939, "\u0120hikers": 33135, "\u0120unim": 41236, "\u0120bes": 9988, "\u0120nicknamed": 24401, "\u0120buyer": 9790, "\u0120Sur": 6544, "\u0120Notice": 22873, "\u0120fruition": 25789, "RAFT": 43250, "\u0120zoo": 14188, "\u0120Morph": 44550, "\u0120drainage": 20971, "oooooooooooooooo": 49294, "\u0120sight": 6112, "\u0120downstream": 18561, "urable": 24517, "\u0120predictable": 16887, "\u0120Sprint": 13780, "\u0120enhances": 27460, "\u0120piracy": 33551, "\u0120Margaret": 10488, "\u0120Has": 6233, "ech": 7529, "bara": 31533, "onement": 30252, "\u0120moot": 30036, "OVER": 36933, "\u0120Dash": 18946, "\u0120turned": 1224, "enum": 46284, "license": 46344, "\u01201952": 26891, "\u0120Reduce": 38053, "\u0120Bangl": 33371, "\u0120Shaman": 47459, "Role": 47613, "jee": 11650, "\u0120Ravens": 10052, "\u0120telescope": 27608, "aji": 10440, "\u0120unden": 49510, "\u0120Administration": 4237, "\u0120naval": 15272, "\u0120Recreation": 14028, "\u0120confidentiality": 25643, "\u0120moniker": 30543, "\u0120righteousness": 43626, "Gab": 39767, ";;;;;;;;": 49909, "module": 48095, "\u0120Barbie": 31304, "\u0120six": 411, "\u0120direction": 2698, "John": 10567, "\u0120Cards": 17972, "POST": 47060, "iles": 4755, "\u0120Timbers": 34303, "\u0120Merlin": 38445, "\u0120Factors": 22490, "ancing": 7710, "\u0120Phantom": 30099, "\u0120Molecular": 36938, "\u0120requested": 5372, "\u0120mammoth": 28521, "andestine": 47931, "\u0120coastal": 8095, "331": 34071, "Zero": 38423, "\u0120Rac": 14822, "photo": 17827, "\u0120outper": 9980, "\u0120Walmart": 7819, "\u0120redistributed": 3802, "\u0120Anyone": 6142, "\u01202012": 1125, "\u0120landing": 6684, "\u0120tastes": 17893, "\u0120Deborah": 18878, "\u0120Jesuit": 34466, "\u0120Johnny": 8781, "\u0120geared": 19595, "\u0120Proof": 34628, "674": 38715, "abbage": 44866, "\u01201937": 31556, "byss": 49889, "\u0120dungeon": 44687, "\u0120inherently": 22646, "\u0120Refugees": 29859, "\u0120Java": 24549, "\u0120dopamine": 40965, "ingle": 18768, "printed": 36818, "\u0120RAND": 43015, "keep": 27390, "\u0120DJ": 7766, "arial": 27774, "\u0120psychosis": 41116, "\u0120unanswered": 20358, "\u0120Hun": 17087, "cig": 47112, "\u0120spiral": 21300, "\u0120bureaucr": 38722, "umenthal": 48679, "\u0120neighbour": 14915, "\u0120GF": 32727, "670": 34148, "udicrous": 47400, "\u0120printing": 12168, "uffed": 16368, "eping": 24320, "wang": 27138, "\u0120MHz": 41576, "Column": 47344, "\u0120keen": 5609, "weight": 4301, "\u0120Dahl": 26380, "\u0120Savage": 18654, "\u0120Center": 824, "\u0120Nu": 12907, "\u0120identity": 3599, "\u0120Catch": 15568, "impact": 32158, "\u0120Lean": 37882, "\u0120whilst": 11187, "notes": 29369, "\u0120Army": 2938, "\u0120Sharon": 12417, "\u0120tucked": 21222, "\u0120Stanton": 16294, "\u0120caveats": 40833, "\u0120FISA": 34137, "ribly": 46529, "\u00e6\u0126": 48959, "\u0120thieves": 17797, "\u0120fashion": 2734, "\u0120Liam": 10143, "\u0120occupational": 30949, "\u0120Updates": 24677, "\u0120comedians": 28972, "\u0120trunc": 43064, "\u0120Carlton": 25192, "227": 29240, "\u0120Mormon": 29645, "\u0120primates": 43134, "arn": 4422, "\u0120lawn": 11853, "\u0120extrad": 22829, "collar": 27543, "\u0120dissemination": 35426, "\u0120Bloody": 38274, "\u0120Erd": 25716, "\u0120starting": 1158, "\u0120Aug": 2049, "win": 5640, "femin": 41468, "Compat": 49697, "\u0120rivers": 12323, "Red": 15638, "auldron": 43403, "\u0120Pork": 35385, "\u0120UCHIJ": 50210, "\u0120Wise": 20984, "olog": 8982, "\u0120seasons": 2516, "\u0120surpassed": 17068, "\u0120rested": 21249, "\u0120Radiation": 43209, "\u0120visit": 825, "\u0120battled": 12248, "igne": 25835, "\u0120cheating": 14153, "\u0120cloaked": 45466, "\u0120Hur": 8657, "ursor": 47853, "omsky": 48322, "\u0120worn": 10610, "\u0120warmer": 13933, "\u0120reaching": 3970, "\u0120Under": 2096, "icia": 16488, "\u0120Pakistan": 1752, "quila": 27224, "\u0120attraction": 13003, "\u0120Depot": 16352, "Right": 13984, "Advertisements": 49652, "\u0120Hoy": 24984, "\u0120mentioned": 2801, "\u0120nurturing": 30560, "\u0120spotlight": 8036, "Secondly": 45527, "WA": 8460, "\u0120Raymond": 10526, "\u0120influences": 16882, "\u0120forc": 33147, "\u0120compiled": 11603, "killing": 34549, "\u0120cannabinoids": 43488, "cone": 33666, "ourn": 8371, "acing": 7575, "\u0120dressing": 10386, "Saharan": 27692, "\u0120mayhem": 30524, "oiler": 46434, "\u0120instant": 10062, "mma": 35221, "\u0120FALSE": 46007, "\u00e5\u00b0\u0128": 49322, "\u0120rest": 1079, "UFC": 33118, "\u0120describing": 9072, "\u0120Maya": 21081, "\u0120Cait": 18901, "\u0120reviewed": 7123, "\u0120PUR": 36759, "\u0120headphones": 15684, "\u0120collaborate": 16075, "\u0120coordinates": 34721, "driving": 10241, "zee": 38702, "\u0120raced": 13795, "\u0120hang": 6713, "\u0120sever": 20242, "\u0120Survivors": 28044, "\u0120rightful": 32374, "\u0120eliminating": 13209, "Pen": 32884, "\u0120arteries": 33847, "\u0120Insert": 45707, "psey": 47490, "\u0120Ra": 4833, "\u0120whites": 17942, "ilation": 29357, "Applic": 47997, "\u0120Born": 8912, "\u0120harbor": 19655, "\u0120EQ": 29612, "Phys": 43827, "bish": 44011, "\u0120subreddits": 48300, "\u0120Emir": 24746, "\u0120mother": 985, "facebook": 17635, "artment": 27699, "ECK": 30438, "\u0120dragging": 19335, "lette": 13476, "Cache": 48572, "\u0120compr": 43045, "\u00d7\u0133": 48405, "\u0120multiplication": 46485, "SEA": 40111, "oe": 3540, "use": 3698, "\u0120403": 35611, "\u0120286": 38708, "\u0120receives": 9524, "their": 25017, "Interstitial": 49946, "\u0120sentiment": 5702, "\u0120confrontation": 12065, "\u0120Henri": 26768, "\u0120psychiatrist": 27321, "\u0120Alone": 34171, "\u0120symp": 46987, "\u0120sexual": 1363, "\u0120rhetoric": 8770, "iru": 23349, "\u0120nort": 32354, "\u0120microscopic": 38292, "\u0120Minerva": 41961, "enta": 16586, "\u0120yell": 28930, "\u0120Introdu": 32687, "mark": 6920, "\u0120Steve": 2206, "\u0120application": 2502, "omic": 30344, "\u0120transcription": 37118, "ectar": 39459, "\u0120poking": 34552, "\u0120fingerprints": 28113, "\u0120fort": 15016, "\u0120mitigate": 15292, "MF": 41583, "\u0120Making": 11102, "juries": 30832, "istration": 32078, "pic": 19017, "\u0120Yel": 26968, "291": 33657, "unk": 6435, "iao": 17530, "onis": 25516, "\u0120Defendants": 38153, "\u0120California": 886, "\u0120Fren": 41174, "\u0120combining": 15224, "TOP": 28332, "394": 35705, "\u0120venom": 32051, "\u0120Turtles": 43843, "\u0120Runes": 49421, "\u0120dile": 41143, "\u0120hold": 946, "Stretch": 48519, "\u0120Ratt": 32271, "Continue": 46982, "\u0120Levine": 20389, "\u0120chili": 26835, "\u0120scientific": 6441, "accept": 35468, "\u0120Script": 32175, "\u0120exhibition": 6318, "issy": 20157, "\u0120intercourse": 31677, "\u0120elong": 38889, "\u0120attribut": 41070, "\u0120\u00c2\u0142": 50143, "irty": 32430, "marked": 18584, "itu": 15998, "igma": 34719, "\u0120parach": 40953, "slice": 48108, "\u0120refinery": 13628, "ag": 1073, "\u0120named": 1440, "\u0120reconcil": 32183, "anoia": 47733, "\u00e5\u00be": 48412, "\u0120gates": 14213, "\u0120genre": 11581, "orp": 10782, "\u0120Bryan": 7573, "\u0120Vanessa": 17681, "France": 25010, "\u0120Vim": 41216, "\u0120inconven": 41228, "Ide": 42233, "\u0120Shane": 10235, "elligent": 42732, "\u0120engines": 8186, "\u0120seller": 15689, "\u0120smoothly": 17359, "\u0120generator": 22538, "ickets": 8586, "\u0120singer": 3250, "\u0120policeman": 20976, "washing": 36230, "\u0120distinguishing": 41444, "\u0120erroneous": 36973, "\u0120AK": 14530, "\u0120masculine": 37360, "\u0120compiler": 44904, "\u0120deities": 46054, "\u0120calculation": 21586, "\u0120Iceland": 14605, "\u0120skip": 14514, "Background": 48277, "\u0120Ub": 31817, "year": 180, "\u0120Canaan": 37193, "\u0120dock": 15261, "\u0120Manip": 27420, "\u0120urine": 20987, "Soc": 29971, "\u0120Giuliani": 18334, "\u0120contradictions": 37186, "________________________________________________________________": 46303, "\u0120forth": 7264, "\u0120Orient": 29540, "\u0120Raphael": 29719, "\u0120contemplation": 44072, "\u0120congressional": 5744, "ams": 7042, "\u0120Planned": 15121, "\u0120approving": 20499, "\u0120atheists": 45008, "\u0120tomato": 20406, "alk": 9707, "\u0120suck": 23829, "\u0120tame": 29222, "\u0120decentralized": 34930, "\u00d0\u00ba": 41171, "\u0120Stealth": 42322, "\u00e3\u0123\u00ae\u00e9\u0143\u0136": 50059, "\u0120sleek": 19474, "rav": 6472, "\u0120rainbow": 20927, "\u0120stamina": 34745, "seat": 11517, "\u0120tongues": 39279, "\u0120resolutions": 13781, "561": 39345, "oho": 24019, "abama": 46947, "aea": 38847, "\u0120Ur": 9163, "\u0120transact": 32006, "handler": 45291, "\u0120Baltimore": 4766, "641": 39138, "\u0120Created": 32966, "Apps": 46036, "\u0120Fi": 19643, "ophobia": 24938, "\u0120narration": 40917, "Target": 41858, "\u0120chain": 3206, "\u0120Grave": 38467, "shirt": 8674, "\u0120Dirk": 30396, "bolt": 39560, "Semitism": 19155, "ifiable": 21584, "fiction": 25175, "\u0120Statistics": 12064, "\u0120Xia": 25689, "646": 33075, "\u0120fear": 2490, "\u0120Ares": 40842, "\u0120Gig": 14448, "Reading": 43952, "\u0120Neg": 13912, "\u0120including": 217, "levant": 43986, "rio": 12834, "\u0120keeper": 13456, "NP": 10949, "\u0120commands": 16388, "\u0120lively": 20902, "\u0120staffers": 13826, "\u0120cents": 3205, "\u0120militar": 25585, "\u0120yesterday": 2350, "Nin": 42047, "\u0120completion": 5687, "rob": 17569, "facing": 16891, "\u00e2\u0122\u0136-": 44440, "generic": 47663, "whe": 28884, "01": 2663, "\u0120weren": 3559, "iano": 5472, "\u0120FIGHT": 41905, "Nic": 31988, "yth": 20436, "desktop": 47912, "\u0120volunteered": 20792, "\u0120Newsweek": 34622, "\u0120Dennis": 8093, "\u0120shrunk": 28704, "iping": 31401, "\u0120instructor": 14772, "aleigh": 42359, "anth": 16390, "\u0120excerpt": 30376, "\u0120slamming": 26963, "\u0120accounted": 9521, "\u0120used": 341, "\u0120Sher": 6542, "haust": 41423, "EA": 14684, "lys": 32142, "sound": 38483, "\u0120Warlock": 47805, "\u0120vit": 14306, "Let": 7939, "Directory": 49226, "\u0120Wrath": 46597, "Saturday": 17643, "\u0120minimal": 9865, "\u0120unsustainable": 26079, "\u0120must": 531, "ruption": 26858, "Pokemon": 46145, "opol": 34768, "argon": 46974, "\u0120110": 8017, "\u0120Lantern": 40479, "++++++++": 49557, "\u0120Staff": 5721, "\u0120appropri": 40194, "\u0120366": 40721, "1965": 45716, "\u0120contracts": 3749, "\u0120similarly": 11401, "\u0120jur": 18603, "\u0120Connie": 26113, "\u0120info": 8574, "\u0120Boe": 26682, "\u0120insignificant": 33710, "\u0120cerebral": 30817, "\u0120pointer": 41515, "liner": 17656, "\u0120expended": 42435, "23": 1922, "1987": 43587, "ife": 11819, "\u0120preference": 12832, "\u0120peasant": 42657, "\u0120Afgh": 47452, "friends": 33601, "erek": 37623, "\u0120EDITION": 46520, "\u0120154": 25502, "\u00e7\u0130\u012d": 49548, "irth": 24208, "\u0120affordable": 4555, "encrypted": 46706, "tw": 17137, "\u0120opted": 8565, "\u0120Plain": 19699, "153": 27982, "\u0120prostate": 20501, "\u0120156": 25664, "\u0120dashed": 30683, "\u0120chasing": 11277, "\u0120Luna": 24089, "\u0120Erica": 22743, "\u0120DeV": 27296, "custom": 31458, "\u0120Ily": 33612, "\u0120spontaneously": 40553, "ANC": 9363, "\u0120HTTP": 44454, "1968": 44808, "\u0120WE": 10284, "Rad": 28243, "\u0120prowess": 23218, "olutions": 30445, "\u0120gunman": 8928, "\u0120misleading": 12030, "\u0120sentences": 11305, "\u0120POLITICO": 41225, "\u0120thrilling": 16208, "rought": 27400, "aturday": 47035, "\u0120Greeks": 29658, "\u0120\"$:/": 50184, "issions": 31358, "TF": 20249, "aah": 46909, "\u0120withd": 49677, "Solution": 48734, "\u0120Fern": 21572, "\u0120empirical": 40150, "\u0120TOM": 36629, "\u0120til": 19976, "\u0120Rip": 20337, "avour": 18633, "\u0120bount": 41974, "\u0120worlds": 14490, "Split": 46744, "\u0120care": 575, "\u0120ingen": 44182, "\u0120Hamas": 11547, "\u0120path": 2718, "\u0120rewards": 12840, "\u0120Maggie": 18320, "\u0120Maps": 21089, "\u0120disclosures": 21357, "\u0120Receiver": 40424, "\u0120Ern": 42833, "\u0120ele": 16743, "\u0120Sith": 33922, "ricanes": 45956, "\u0120potion": 46728, "obbies": 47991, "eight": 19491, "estamp": 48571, "\u0120Pv": 11446, "\u0120navy": 13504, "cture": 32526, "\u0120scant": 26583, "\u0120astounding": 29932, "\u0120\"_": 49713, "Monster": 43818, "uras": 33323, "\u0120lives": 1074, "\u0120passionate": 8840, "\u0120sewing": 30890, "al": 337, "ention": 19774, "Laura": 40330, "\u0120Barnes": 10164, "spawn": 48197, "\u0120Legisl": 32717, "\u0120PLAN": 37330, "\u0120sister": 2761, "Alan": 41540, "1989": 41351, "\u0120Luis": 7866, "\u0120Vermont": 10487, "\u0120mol": 13200, "\u0120confession": 23599, "\u0120pupil": 25209, "\u0120criminals": 9177, "\u0120Aust": 18933, "\u0120individually": 15529, "\u0120Imperial": 16659, "resistant": 21808, "\u0120observing": 21981, "\u0120Schiff": 22143, "bell": 11312, "NS": 6949, "\u0120night": 363, "\u0120Hassan": 11551, "\u0120sushi": 28287, "\u0120Transition": 34235, "\u0120signifies": 39427, "\u0120Studio": 11523, "\u0120Awesome": 40136, "oser": 19780, "\u0120Laz": 15619, "\u0120planted": 13136, "\u0120Caldwell": 18050, "\u0120slipping": 18991, "\u0120perennial": 25551, "\u0120410": 27393, "\u0120adequ": 27438, "\u0120culminating": 29681, "external": 43166, "NVIDIA": 48701, "\u0120grips": 29706, "paralle": 49148, "ena": 4242, "\u0120Dusk": 46680, "GV": 37838, "\u0120adherent": 48059, "\u0120Proxy": 45571, "135": 18508, "\u0120cheeks": 32040, "\u0120Machine": 14969, "Germany": 24596, "joined": 37097, "\u0120blockade": 21912, "Cmd": 49530, "DEC": 44579, "\u0120codes": 14284, "\u00c2\u00af": 47350, "\u0120intend": 10557, "\u0120sampling": 20424, "\u0120herself": 2864, "\u0120mix": 3344, "\u0120slower": 9992, "\u0120disrupting": 24127, "jay": 15448, "\u0120terribly": 23213, "\u0120systematically": 28210, "\u0120CMS": 29452, "\u0120glorious": 19465, "Deep": 35166, "guns": 39428, "\u0120summarized": 38152, "duct": 43518, "\u0120Mac": 1775, "\u0120luckily": 32593, "OST": 13556, "\u0120Renew": 19505, "\u0120sue": 14811, "Dar": 30951, "\u0120Titanic": 33368, "\u0120ORIG": 38790, "Cub": 43655, "\u0120storefront": 28298, "\u0120StarCraft": 47453, "\u0120moment": 1151, "\u0120industrial": 2683, "\u0120Colors": 37780, "\u0120Banana": 37969, "\u0120\u00e2\u012a\u00bc": 49447, "entry": 12595, "Turn": 30093, "itto": 29765, "imer": 15677, "\u0120familiarity": 30234, "\u0120Martian": 35017, "\u0120relaxing": 19448, "orn": 4244, "\u0120MOD": 35179, "will": 6677, "\u0120escaped": 8896, "\u0120Holdings": 4357, "\u0120pound": 6881, "\u0120separately": 12712, "\u0120decorated": 14633, "\u0120rusty": 36069, "\u0120Treasurer": 22685, "esting": 24472, "\u0120Sup": 17901, "\u0120Chair": 8381, "008": 37277, "\u0120fee": 4029, "\u0120vener": 43276, "phot": 36051, "istent": 21464, "\u0120Gay": 9480, "\u0120docker": 48133, "\":": 7862, "\u0120Albert": 8098, "\u0120draped": 30307, "mania": 34865, "Gary": 33761, "Net": 15721, "\u0120acting": 3501, "\u0120pause": 13787, "school": 8813, "\u0120Artist": 16688, "\u0120numerous": 3617, "Wednesday": 26152, "============": 43613, "\u0120grasped": 43367, "\u0120cann": 36541, "\u0120Leslie": 12504, "\u0120cipher": 47601, "\u0120Towards": 39108, "\u0120approaches": 8369, "\u0120Rider": 30037, "\u0120vocal": 7578, "\u0120unconstitutional": 14935, "orr": 33085, "\u0120preached": 36779, "\u0120vex": 37894, "\u0120Jesus": 5772, "\u0120magic": 8375, "\u0120CW": 17660, "Come": 22817, "displayText": 50085, "\u0120draw": 2451, "utics": 10381, "\u0120conflict": 3050, "IND": 13796, "crete": 30834, "oother": 49012, "jected": 31899, "Japan": 21318, "\u0120furious": 15940, "\u0120Ce": 15858, "\u0120analyst": 2066, "\u0120leaked": 9372, "\u0120Roc": 16809, "\u0120Leader": 5337, "\u0120Sanskrit": 44018, "\u0120intruder": 34582, "\u0120contempt": 16176, "\u0120Locked": 45915, "AppData": 49679, "\u0120Tatt": 32699, "anga": 9615, "\u0120communist": 19884, "\u0120Fant": 33679, "\u0120stirred": 26158, "\u0120Rusty": 37369, "\u0120Wired": 36572, "goo": 43391, "\u0120Leh": 15765, "\u0120biases": 31681, "\u0120asleep": 15028, "\u0120KP": 19107, "\u0120Gest": 37479, "\u0120deline": 39145, "\u0120owl": 37323, "\u0120Jared": 8790, "\u00c2\u00b6": 46143, "\u0120quantity": 16363, "oneliness": 46292, "Te": 16215, "auntlet": 41239, "\u0120Ao": 42169, "ministic": 47907, "\u0120Mohammad": 11552, "\u0120jugg": 23840, "\u0120Anger": 39013, "\u0120holders": 9758, "ittee": 45798, "iframe": 48363, "endale": 19725, "\u0120480": 26754, "\u0120aircraft": 3054, "amac": 45029, "Duration": 49404, "\u0120via": 1241, "\u0120Mash": 17807, "\u0120repetition": 37176, "\u0120INFORMATION": 20213, "\u0120criminally": 30230, "\u0120shapes": 16499, "operative": 23655, "\u0120captivity": 28499, "\u0120Rubio": 16528, "Writ": 45987, "\u0120Fourth": 11035, "acerb": 47603, "utsche": 35816, "\u0120blonde": 12953, "osh": 5212, "\u0120complain": 11316, "\u0120Rising": 14911, "\u0120fireplace": 24672, "irmation": 39490, "itially": 49848, "rial": 13700, "\u0120focusing": 5650, "\u0120supernatural": 32049, "\u0120hope": 1034, "\u0120Division": 2925, "nings": 9523, "bt": 25933, "\u0120Tree": 11077, "uct": 21491, "\u0120Coup": 37223, "!!": 12846, "\u0120nighttime": 32228, "\u0120Ethnic": 42652, "MRI": 44903, "\u0120Evans": 4869, "Always": 37478, "\u0120registers": 34416, "JECT": 33302, "\u0120amplification": 45156, "\u0120..............": 49739, "bsp": 39596, "roller": 32121, "\u0120ac": 4285, "\u0120marqu": 45481, "ink": 4291, "initely": 27941, "\u0120Shed": 34891, "\u0120struct": 29916, "\u0120Neon": 36349, "\u0120detract": 38442, "higher": 40499, "\u0120coverage": 1953, "\u0120gasoline": 9358, "\u0120suppose": 19792, "\u0120Enjoy": 16013, "\u0120spam": 28734, "\u0120briefings": 30032, "\u0120Okinawa": 36265, "\u0120Recipe": 38945, "\u0120unknow": 36756, "\u0120congestion": 15744, "\u0120Jordan": 2875, "\u0120payout": 10106, "\u0120Found": 11911, "\u0120emerged": 4373, "\u0120interviewed": 7477, "\u0120forcibly": 24991, "\u0120Pr": 2869, "\u0120Cars": 17714, "\u0120Bj": 20542, "\u0120Hot": 6003, "\u0120Migration": 26742, "\u0120Mud": 20368, "IVER": 26994, "\u0120Ik": 20270, "\u0120deadline": 4267, "\u0120ruled": 3447, "wayne": 20143, "\u0120reinvent": 23936, "seys": 27378, "\u0120Rein": 17789, "050": 25423, "ENE": 33978, "\u0120dual": 6594, "\u0120obj": 26907, "aston": 24374, "\u0120longing": 36171, "\u0120Calais": 36295, "\u0120Specific": 37699, "\u0120biological": 12243, "\u0120CCTV": 14363, "\u0120Civil": 5280, "\u0120lymph": 23496, "listed": 11301, "\u0120frag": 24275, "\u0120defin": 32888, "\u0120settings": 9629, "anye": 36618, "cing": 11162, "Animation": 48761, "\u0120fuzz": 44562, "iHUD": 50076, ")}": 48950, "ufficient": 43022, "\u0120Elf": 32077, "Fan": 41300, "\u0120Pure": 19769, "\u0120promoting": 6061, "\u0120Carry": 36241, "687": 37399, "OAD": 43021, "Isa": 39323, "\u0120intellectually": 38196, "\u0120Parents": 13791, "knowledge": 44228, "\u0120roam": 32582, "Enc": 45780, "\u0120mRNA": 47412, "\u0120toggle": 23012, "Request": 45589, "EDIT": 24788, "\u0120Plenty": 27259, "Medic": 39096, "\u0120connected": 3665, "utive": 19172, "\u0120hated": 19975, "\u0120Machines": 28413, "\u0120Barg": 28876, "\u0120)": 4839, "\u0120airstrikes": 21176, "uren": 20732, "Marc": 28987, "\u0120Rouhani": 17924, "business": 11880, "Bill": 19993, "\u0120separatist": 21324, "ylene": 29408, "ported": 31340, "\u0120favored": 15411, "\u0120escalation": 18145, "\u0120Beam": 32538, "ischer": 32949, "\u0120stray": 21480, "agements": 46296, "\u0120mob": 13099, "\u0120lips": 14638, "vell": 22752, "\u0120sans": 31022, "\u0120natives": 33616, "\u0120tru": 35121, "\u0120pretended": 35793, "hom": 24792, "\u0120ordained": 36433, "\u0120fungus": 37933, "ai": 1439, "anne": 8799, "\u0120shading": 44615, "\u0120oversight": 9233, "Hispanic": 44272, "\u0120ver": 4342, "\u0120miniature": 26322, "Parts": 45305, "\u0120Tournament": 7647, "Non": 33239, "audi": 44856, "\u0120Contributions": 42927, "Iss": 43087, "\u0120):": 47075, "addafi": 45808, "\u0120teammate": 8351, "\u0120stemming": 16249, "\u0120microbial": 38607, "\u0120Ancest": 42054, "\u0120Zone": 10351, "ppers": 14403, "Wiki": 46929, "detail": 41467, "border": 16720, "\u0120remake": 21280, "\u0120Crescent": 22226, "\u0120Oslo": 26067, "rap": 8645, "\u0120cues": 25072, "ln": 8502, "\u0120bishops": 19929, "\u0120Duty": 22281, "\u0120Chromebook": 27202, "\u0120prophets": 43346, "\u0120decay": 30512, "\u0120receipt": 18245, "\u0120Haz": 14581, "\u0120maneu": 45965, "olitan": 45021, "\u0120Sherlock": 34453, "\u0120withdraw": 8202, "plate": 29098, "\u0120McDonald": 6036, "\u0120penis": 25128, "\u0120destroy": 8439, "\u0120insults": 22536, "\u0120Fract": 45274, "\u0120funded": 6140, "url": 6423, "\u0120feedback": 6456, "ah": 895, "\u0120Cord": 11931, "anking": 20327, "\u0120Morg": 32720, "cellence": 46716, "\u0120Session": 19374, "\u0120authoritative": 34502, "\u0120proponents": 27463, "\u0120USS": 18596, "Collins": 40380, "stone": 4670, "Wr": 44142, "\u00e3\u0122\u012f": 49236, "\u0120jug": 26144, "Bl": 12654, "\u0120announced": 585, "\u0120NOT": 8127, "\u0120insult": 18566, "\u0120Alter": 33971, "Values": 48738, "alist": 39295, "\u0120Orioles": 14572, "\u0120Hung": 29604, "\u0120emperor": 36179, "\u0120Kab": 14059, "\u0120bon": 13295, "\u0120league": 1267, "comment": 44951, "Buzz": 38301, "Raid": 44356, "eper": 30816, "\u0120crude": 2976, "gin": 11405, "\u0120negligence": 20037, "\u0120propriet": 32130, "\u0120Outlook": 11011, "ionic": 37115, "kat": 18287, "\u0120director": 736, "ir": 853, "\u0120Call": 3310, "erick": 23933, "\u0120unless": 3867, "\u0120charcoal": 29741, "Shape": 45336, "\u0120Public": 1909, "\u0120massacres": 39246, "ranked": 8970, "\u0120hundred": 6317, "\u0120onwards": 26485, "\u0120arrays": 42156, "\u0120Potion": 48475, "\u0120dj": 29831, "\u0120considered": 1687, "errors": 48487, "\u0120turkey": 15164, "services": 28023, "\u0120\u00e2\u0128\u0133": 48633, "OVA": 44320, "\u0120crew": 3419, "\u0120acad": 36271, "fire": 7051, "aunder": 39686, "imgur": 49589, "\u0120refinement": 41722, "\u0120Magnum": 41277, "olf": 14927, "\u0120\\\"": 48298, "\u0120assumed": 9159, "\u0120Media": 2454, "060": 37143, "\u0120Titan": 23308, "\u0120lieu": 19240, "\u0120torches": 41745, "Auto": 40845, "\u0120Latvia": 27749, "assion": 22947, "\u0120Schwarzenegger": 28797, "White": 15725, "Login": 43890, "\u0120countless": 10807, "\u0120claw": 22047, "\u0120home": 184, "\u0120lik": 26669, "\u0120Dunk": 17933, "\u0120DJs": 33497, "everyone": 37180, "inson": 9554, "\u0120Ronald": 9317, "\u0120overrun": 27403, "\u0120untreated": 30946, "years": 12857, "\u0120Pull": 18143, "\u0120ridicule": 35288, "\u0120For": 286, "\u0120bombshell": 24332, "\u0120Additionally": 6903, "668": 37867, "\u0120lifestyle": 6339, "\u0120ape": 40653, "\u0120upon": 2115, "\u0120processor": 10655, "\u0120caravan": 15987, "Resources": 47057, "\u0120Electricity": 28501, "redits": 43933, "\u0120reporting": 2207, "Attribute": 49385, "\u0120Rue": 35215, "\u0120non": 786, "stretched": 34513, "lace": 44603, "Factory": 47249, "\u0120Pont": 16862, "\u0120plastic": 4136, "\u0120Si": 11065, "\u0120scarcely": 40853, "\u0120Godzilla": 43584, "coat": 29582, "\u0120Asuka": 39480, "Compared": 44891, "------------------------------------------------": 49374, "\u0120typh": 27429, "\u0120poss": 28001, "\u0120Condition": 35140, "\u0120urgent": 9047, "ados": 6510, "\u0120explored": 16217, "\u0120mayor": 3647, "\u0120Regist": 43812, "\u0120Duel": 45342, "=~": 49938, "\u0120Elizabeth": 4690, "\u0120knowledgeable": 26782, "\u0120209": 28036, "ribute": 25006, "\u0120assisting": 13390, "336": 27624, "\u0120Romero": 18968, "\u0120Mell": 27742, "Leader": 38660, "\u0120rac": 13816, "\u0120convol": 49700, "bole": 38373, "vi": 6873, "\u0120startup": 9143, "\u0120Pond": 26098, "Good": 12350, "\u0120supers": 31716, "\u0120proportional": 35563, "lees": 35379, "\u0120Downtown": 13232, "\u0120immature": 39001, "\u0120Anton": 12929, "\u0120blank": 15818, "\u0120globally": 7197, "lez": 23250, "\u0120Rates": 31850, "\u0120Straight": 30020, "\u0120Labrador": 26882, "\u0120alone": 1937, "\u0120POV": 46369, "\u0120announcing": 7106, "\u0120Cinderella": 34800, "\u0120bonus": 7944, "\u0120Quebec": 7534, "\u0120pend": 35394, "\u0120snakes": 24328, "changed": 37541, "\u0120Brad": 4770, "\u0120expelled": 18682, "\u0120Brewers": 13045, "\u0120Kidd": 29456, "\u0120Andrew": 2224, "writing": 13293, "\u0120Cummings": 20342, "keeper": 12873, "\u0120Coverage": 16514, "Miami": 26048, "\u0120humane": 26899, "\u0120broke": 2263, "560": 30207, "\u0120Goddess": 41838, "\u0120Safety": 5264, "\u0120Florence": 9610, "existing": 19865, "eeee": 45835, "are": 1322, "\u0120ar": 4709, "\u0120acted": 8337, "\u0120fumble": 16806, "\u0120dreamed": 21990, "Ryan": 23287, "753": 37475, "\u0120OH": 18895, "ze": 2158, "152": 27097, "\u0120reservation": 17246, "\u0120Jury": 28492, "eh": 14897, "\u0120crossover": 20129, "\u0120Cox": 8278, "beit": 23274, "497": 38143, "Elf": 46700, "\u0120anat": 41115, "\u0120differently": 8225, "Europe": 27000, "\u0120secondly": 36013, "\u0120stim": 43085, "playing": 20180, "sp": 4182, "\u0120finished": 1550, "utter": 12158, "qq": 31341, "\u0120adopt": 7581, "\u0120Pog": 12890, "\u0120statements": 1997, "\u0120Dianne": 24488, "\u0120bast": 25753, "\u0120Hillary": 5141, "\u0120417": 40740, "\u0120Autob": 43917, "\u0120gallons": 17870, "versive": 47804, "earing": 10852, "\u0120Guardiola": 11425, "\u0120tailor": 26090, "Facebook": 18064, "!'\"": 35347, "war": 5557, "Tes": 46715, "\u0120Roose": 47399, "\u0120inspired": 4083, "\u0120curious": 10691, "even": 12963, "vre": 29416, "Texture": 49461, "\u0120censored": 39692, "zan": 13571, "\u00e3\u0124\u00b4\u00e3\u0125\u00b3": 50060, "\u0120120": 5962, "\u0120Arsenal": 4152, "\u0120lo": 4600, "\u0120learn": 1532, "\u0120Mustang": 23103, "\u0120define": 9914, "\u0120incent": 48169, "llor": 31836, "\u0120Task": 12927, "lance": 42162, "\u0120Vikings": 7839, "\u0120agrees": 11687, "\u0120regimes": 25549, "\u0120solitude": 41813, "\u0120DET": 31459, "\u0120brav": 35977, "\u0120CLA": 38528, "\u0120emits": 43098, "\u0120Palestinians": 8345, "\u0120flurry": 18996, "\u0120biotech": 22803, "\u0120+#": 49979, "\u0120\u00e8\u00a3\u0131": 50073, "rible": 24786, "ulate": 10246, "read": 12745, "\u0120Corn": 10217, "\u0120bury": 24569, "othermal": 35941, "${": 49316, "\u0120transcript": 12348, "\u0120Offline": 46949, "INGTON": 18396, "\u0120Hog": 28464, "\u0120malware": 16886, "\u0120nearest": 14712, "\u0120Legislative": 19845, "\u0120Celsius": 15807, "\u0120Eg": 22375, "ax": 3631, "icates": 23020, "\u0120Aren": 26021, "Fel": 39611, "owler": 45890, "oard": 37021, "\u0120ferocious": 31429, "\u0120Prob": 23440, "*,": 36592, "\u0120Stanley": 4725, "\u0120Ol": 5387, "arin": 15394, "sell": 5727, "wan": 6531, "\u0120Housing": 8160, "\u0120thefts": 25154, "\u0120owner": 1945, "btn": 49231, "ingers": 35997, "\u0120Brewer": 23404, "\u0120Stim": 34679, "NOT": 37049, "\u0120storage": 3521, "\u0120Haw": 10034, "\u0120399": 41279, "\u0120rockets": 19367, "\"},": 49852, "\u0120flowing": 12741, "\u0120college": 1564, "ilantro": 37931, "\u0120yelling": 16600, "enna": 18974, "\u0120attorney": 1921, "pe": 2379, "\u0120Snowden": 23339, "GOP": 43070, "Alice": 43714, "DK": 44097, "eries": 9709, "\u01201973": 14757, "ront": 23406, "hap": 24616, "\u0120maintain": 3014, "\u0120Significant": 35498, "\u0120Ward": 5986, "Samsung": 35932, "ointment": 36113, "\u0120biggest": 934, "\u0120Pluto": 36517, "Ub": 44588, "venant": 45337, "\u0120pas": 6977, "depth": 11583, "\u0120Algeria": 21774, "\u0120CAS": 24775, "Tour": 31814, "agger": 17864, "\u0120cass": 38086, "\u0120Irvine": 20738, "\u0120advantage": 2093, "uzzle": 46849, "\u0120horse": 5253, "\u0120Bean": 21800, "\u0120fibre": 21060, "\u0120Somebody": 34229, "\u0120inconvenience": 24109, "Origin": 47651, "\u0120laud": 31014, "\u0120Marsh": 11205, "Station": 41925, "ading": 8423, "\u0120frankly": 13542, "\u0120MAT": 25899, "\u0120Forever": 25201, "\u0120liking": 25896, "\u0120Bourbon": 36115, "BRE": 37589, "\u0120245": 28328, "0100": 45231, "\u0120Irwin": 26062, "480": 27018, "\u0120widest": 35653, "utor": 35853, "\u0120balanced": 9320, "\u0120encaps": 32831, "gb": 19562, "Abs": 43610, "\u0120LEVEL": 46058, "\u0120reminders": 27803, "\u0120STOP": 40061, "\u0120triangle": 29884, "718": 38590, "\u0120Climate": 11001, "length": 16096, "\u00ce\u00bb": 48191, "\u0120Strip": 12943, "\u0120sides": 2380, "\u0120estranged": 20599, "\u0120faith": 3975, "\u0120disco": 31562, "qu": 2253, "ows": 2176, "\u0120Howe": 22654, "\u0120island": 2946, "fitted": 29043, "\u0120archaeologists": 37325, "ibl": 41074, "\u0120Username": 41219, "Song": 42677, "\u0120huge": 1307, "Sol": 39524, "nc": 11326, "\u0120appar": 41736, "\u0120vortex": 38179, "ival": 11221, "\u0120HDL": 46108, "sey": 4169, "\u0120tender": 8780, "\u0120front": 760, "\u0120pant": 16259, "Grand": 27270, "condition": 27503, "ilst": 32482, "\u0120misinterpret": 36939, "ellig": 37448, "\u0120gesture": 12433, "\u0120steroid": 37614, "\u0120upgrades": 11500, "Further": 37666, "\u0120contag": 38174, "\u0120Tinker": 42549, "mit": 8974, "\u00e5\u0132": 47504, "mile": 7800, "\u0120resize": 47737, "\u0120Greatest": 25854, "Front": 35985, "\u0120bean": 23216, "\u0120objective": 4554, "\u0120Sy": 5767, "\u0120|--": 49812, "\u0120profitability": 8680, "\u00d1\u0122": 24269, "\u0120algae": 25237, "List": 36583, "\u0120trave": 49352, "\u0120guiding": 17769, "\u0120Triumph": 34839, "\u00e3\u0124\u00a2\u00e3\u0125\u00ab": 49926, "Cons": 24514, "\u0120Olsen": 22497, "reset": 45703, "\u0120Zimbabwe": 4637, "\u0120obstruct": 17092, "\u0120toast": 20260, "\u0120TNT": 27848, "\u0120pounding": 29839, "ousand": 37292, "\u0120travel": 1504, "\u0120hardened": 33631, "\u0120glyph": 48456, "\u0120Cogn": 34997, "\u0120Carbuncle": 49631, "\u0120Obst": 38240, "\u0120fuelled": 20972, "Author": 42779, "\u0120Tradable": 49717, "\u0120architects": 20179, "wikipedia": 47886, "\u0120secrecy": 22596, "\u0120do": 109, "dig": 20098, "\u0120blogger": 21329, "usk": 14570, "\u0120Vegan": 39506, "\u0120resilient": 15194, "\u0120Ginger": 28793, "\u0120automotive": 8568, "\u0120creatures": 15916, "\u0120flourished": 34681, "\u0120convened": 24228, "Syrian": 38291, "esy": 43659, "eger": 44091, "040": 36016, "accompanied": 46476, "\u0120fell": 1064, "\u0120Rutgers": 19212, "\"": 113, "\u0120vet": 9087, "\u0120successor": 10359, "\u0120PR": 4729, "\u0120Wall": 2298, "DER": 28073, "\u0120Hash": 21653, "\u0120Wag": 26746, "team": 8687, "\u0120Kik": 35538, "\u0120entered": 2867, "NK": 39933, "istence": 41177, "nered": 30815, "\u0120substr": 45451, "Stud": 46011, "Damage": 48008, "OO": 9332, "860": 34009, "\u0120Prep": 13915, "Traditional": 45461, "\u0120hassle": 28479, "\u0120Cue": 28231, "\u0120sued": 8124, "\u0120Misty": 38793, "SK": 17342, "\u0120compar": 36601, "\u00e6\u0125": 48617, "\u0120Step": 10577, "\u0120SOLD": 44490, "\u0120confuse": 31643, "\u0120patterns": 8117, "\u0120Sharks": 10755, "\u0120Relief": 21164, "\u0120plasma": 29051, "Rec": 21109, "\u0120Burma": 35044, "\u0120immunity": 17381, "enth": 28249, "\u0120Wonderful": 38022, "\u0120Dating": 35968, "results": 38547, "\u0120Hom": 11858, "\u0120polio": 30801, "artist": 42921, "\u0120elapsed": 43291, "\u0120Knock": 32365, "\u0120Interactive": 21901, "\u0120Repe": 32021, "\u0120yea": 46843, "idas": 19926, "stand": 8490, "\u0120REL": 5698, "\u0120Hou": 27653, "\u0120distressed": 21460, "\u0120Chan": 8710, "\u0120Lover": 39492, "Intern": 46652, "\u0120demonstrators": 14553, "elta": 25412, "\u0120advertise": 26112, "\u0120compact": 12549, "\u0120Fork": 23957, "\u0120Opinion": 20253, "athered": 27694, "Package": 48680, "mmmm": 46677, "\u0120professionals": 5197, "brand": 11638, "\u0120pag": 18215, "\u0120pill": 13106, "\u0120Gaul": 38410, "Were": 43822, "\u0120Himal": 28374, "OTUS": 24678, "ACA": 27920, "\u0120wires": 22893, "\u0120Human": 3861, "\u0120Hands": 20258, "\u0120Recover": 43747, "\u0120Collabor": 24807, "ji": 5186, "amate": 45530, "ilibrium": 47295, "ep": 2462, "\u0120masc": 40000, "\u0120Corbyn": 10113, "\u0120<": 28696, "\u0120workflow": 32209, "\u0120bacter": 39797, "\u0120stating": 9052, "location": 41829, "nie": 7468, "Stats": 45285, "\u0120Merkel": 6580, "\u0120increments": 40390, "Zip": 47945, "\u0120Ste": 5527, "\u0120such": 215, "\u0120White": 735, "\u0120opting": 19182, "\u0120quota": 20248, "\u0120line": 516, "\u0120collaborations": 23812, "\u0120Eli": 13420, "\u0120manner": 4737, "\u0120physical": 2166, "\u0120wrong": 1593, "\u0120posing": 12681, "\u0120hash": 29524, "\u0120X": 1577, "Republican": 33364, "aniel": 35947, "\u0120scree": 39366, "sat": 39544, "ooth": 22571, "Ott": 41691, "oriented": 13283, "House": 18691, "\u0120browsing": 24033, "\u0120buyers": 4859, "aura": 34541, "COR": 39075, "\u0120appears": 2092, "\u0120Weekly": 7830, "aling": 8279, "\u0120gestures": 18693, "\u0120Mead": 25420, "\u0120rewrite": 27549, "\u0120YouTube": 4037, "upp": 12151, "\u0120lethal": 14326, "lag": 23546, "\u0120fingertips": 33138, "\u0120super": 2422, "\u0120Ft": 34434, "icent": 27909, "bia": 35472, "\u0120fare": 11031, "\u0120understandable": 19717, "cin": 28366, "\u0120Zer": 37443, "\u0120vill": 17676, "\u0120Shard": 42511, "thia": 43558, "\u0120RAF": 28539, "\u0120Jiu": 45675, "\u0120slated": 8735, "\u0120ms": 43601, "ful": 2650, "\u0120transmission": 9235, "\u0120Sac": 27957, "adelphia": 45929, "\u0120Eug": 20926, "\u0120busiest": 16988, "YY": 40969, "\u0120Subtle": 46289, "\u0120school": 334, "\u0120Leban": 49601, "\u0120Michele": 21656, "\u0120Wales": 5295, "Mag": 25117, "\u0120Vaults": 48596, "\u0120understands": 8832, "\u0120legal": 1030, "\u0120Google": 1204, "\u0120Host": 10664, "forward": 16135, "\u0120Cha": 18606, "\u0120doesn": 630, "\u0120owned": 2164, "\u0120intrusion": 32028, "\u0120ready": 1227, "\u0120decriminal": 33926, "\u0120HF": 40519, "However": 10462, "\u0120rather": 1195, "\u0120Socialist": 19476, "\u0120moss": 40711, "\u0120Yoga": 20594, "\u0120condu": 37418, "\u0120sp": 2292, "\u0120lifts": 19241, "\u0120Seeing": 24259, "\u0120Seems": 36420, "\u0120prejudices": 39113, "\u0120Brill": 41545, "particip": 42038, "POR": 35473, "\u0120/**": 49455, "cohol": 45270, "setting": 19624, "arijuana": 41054, "rients": 44067, "\u0120greet": 17395, "\u0120shortcomings": 24454, "238": 29567, "\u0120cohesion": 31657, "idity": 35714, "\u0120imply": 25696, "Apparently": 40860, "\u0120B": 163, "\u0120clearly": 2563, "\u0120Depression": 23384, "\u0120indication": 7335, "\u0120protocols": 18956, "\u0120futures": 5060, "\u0120composure": 29140, "\u0120Accessories": 40356, "attr": 44156, "\u0120communications": 4372, "\u0120samurai": 44665, "ay": 857, "RM": 28580, "Tonight": 30516, "\u0120Council": 1080, "\u0120promotional": 14634, "rieg": 38569, "\u0120astronaut": 23910, "\u0120Dylan": 10051, "\u0120se": 842, "should": 17276, "\u0120sequencing": 32243, "\u0120Have": 6319, "\u0120Totally": 41380, "osal": 44704, "\u0120Laf": 27149, ")!": 43002, "\u0120cort": 30249, "\u0120municipal": 8185, "treatment": 37558, "\u0120conducting": 7909, "\u0120Ultra": 16643, "Scott": 22041, "\u0120carried": 2584, "\u0120childcare": 25027, "\u0120cath": 31420, "server": 33806, "\u0120neighbourhoods": 26075, "\u0120refer": 9115, "571": 38173, "\u0120OPT": 40630, "\u0120HSBC": 12699, "\u0120Dad": 13404, "\u0120dismissed": 4768, "\u0120Mane": 21806, "\u0120Bav": 22662, "\u0120prin": 27222, "720": 29721, "\u0120populism": 30667, "Morning": 23736, "reatment": 29340, "\u0120Madness": 30925, ".\u00e2\u0122\u0135": 34124, "\u0120coron": 34377, "\u0120SAR": 34565, "Asian": 36496, "\u0120Relationship": 37917, "\u0120sentencing": 9137, "Cam": 28542, "\u0120mankind": 30515, "ormon": 46408, "\u0120unexplained": 34184, "(_": 49604, "profile": 7221, "\u0120receiver": 4797, "ready": 16402, "\u0120overtime": 6120, "\u0120YPG": 27165, "\u0120delegation": 8090, "\u0120Osw": 38319, "\u0120promoter": 23408, "Usually": 35808, "\u0120Tick": 39661, "\u0120groceries": 20279, "\u0120Neuroscience": 41942, "alled": 9315, "atomic": 45826, "miah": 47755, "\u00e2\u0136\u0123": 49838, "\u0120Decker": 26554, "********": 44116, "\u0120GL": 12209, "?!": 17516, "\u0120Dist": 11281, "\u0120redistribution": 37531, "cons": 10998, "\u0120ascended": 41750, "\u0120Homo": 42769, "itbart": 43701, "Server": 47576, "\u0120introdu": 33605, "\u0120menu": 5765, "\u0120reddit": 44014, "\u0120goblin": 48309, "Media": 18801, "\u0120institutional": 4107, "ullivan": 46678, "\u0120Ye": 11467, "urized": 41003, "\u0120Mori": 32097, "\u0120Hansen": 14942, "\u0120Augusta": 17538, "anges": 33094, "move": 30191, "\u0120Ng": 11562, "\u0120critically": 11960, "\u0120slumped": 16168, "ism": 1809, "aron": 9303, "\u0120redesign": 23392, "CF": 25388, "\u0120hardcore": 27482, "\u0120capture": 5604, "\u0120EUR": 10353, "\u0120Bis": 24325, "\u0120discovers": 28411, "\u0120crippled": 30944, "worthiness": 26041, "\u0120juice": 10580, "\u0120acronym": 29703, "edes": 34567, "Put": 35123, "\u0120inspection": 9472, "\u0120whore": 45590, "\u0120Collect": 27883, "pipe": 30131, "ociated": 47422, "arser": 48046, "572": 39190, "\u0120Reset": 45144, "\u0120Bengals": 12794, "\u0120unequiv": 39754, "Tap": 45129, "\u0120posters": 15736, "\u0120aloud": 31205, "\u0120bloss": 25734, "\u0120indef": 39689, "atile": 36931, "usterity": 43699, "IA": 2889, "\u0120AJ": 15348, "\u0120off": 160, "\u0120from": 31, "\u0120Tehran": 9034, "\u0120euros": 2729, "\u0120apology": 9664, "\u0120tracing": 35105, "\u0120cigars": 40753, "\u0120Morsi": 43131, "\u0120experienced": 2984, "\u0120Moto": 13586, "\u0120patriotic": 22908, "Bad": 26954, "\u0120workshops": 12120, "Inf": 31288, "\u0120includ": 48079, "furt": 45464, "\u0120Laurie": 20332, "\u0120Lucas": 7895, "\u0120southern": 3174, "wi": 16631, "402": 34324, "\u0120notification": 12059, "\u0120Alexis": 11502, "\u0120carrying": 3406, "Order": 45613, "\u0120ease": 5136, "\u0120sticks": 13593, "\u0120paradise": 26215, "enic": 26490, "\u0120attaching": 39484, "()": 43048, "\u0120educational": 5984, "Hardware": 48362, "\u0120proportions": 27311, "\u0120sports": 1612, "College": 28165, "SY": 21134, "hon": 16769, "aving": 13286, "\u0120extracting": 37213, "\u0120surged": 11157, "\u0120Greek": 5617, "\u0120King": 1745, "\u0120Marie": 9340, "\u0120Cu": 10016, "und": 3194, "\u0120product": 1152, "\u0120Side": 9120, "\u0120Tomas": 20849, "\u0120oste": 30311, "\u0120generously": 31306, "\u0120Norse": 41498, "\u0120continuity": 21420, "gment": 10757, "\u0120punct": 15760, "\u0120screening": 7231, "\u0120elsewhere": 5140, "\u0120Roe": 21503, "Legal": 43408, "\u0120blades": 28296, "pection": 46497, "\u0120Produ": 21270, "\u0120annotation": 47760, "\u0120beginner": 37239, "\u0120ensu": 43594, "\u0120least": 513, "\u0120robbed": 13266, "oward": 36750, "\u0120suscept": 48814, "\u0120acquisition": 3857, "ework": 31466, "\u0120Ignore": 45090, "\u0120Persons": 27061, "\u0120NEWS": 7857, "\u0120toler": 30795, "\u0120Rooms": 37490, "\u0120pistols": 38403, "\u0120Wings": 13770, "Studies": 46000, "\u01201921": 37328, "EngineDebug": 50258, "\u0120Work": 6011, "\u0120Wilson": 3095, "\u0120landscape": 5252, "Lady": 35425, "aukee": 45196, "\u0120carbohyd": 49745, "without": 19010, "\u0120ng": 6094, "irus": 19473, "\u0120Khan": 3338, "aptic": 47553, "\u0120skew": 36292, "\u0120fared": 24779, "\u0120Horowitz": 32171, "Ont": 37618, "gart": 22739, "\u0120anything": 932, "\u0120evidence": 1283, "\u0120Houston": 2499, "\u012035": 1718, "bers": 9569, "\u0120induction": 26076, "\u0120stained": 31789, "\u0120Heroes": 24082, "\u0120public": 285, "\u012025": 564, "\u0120fund": 1391, "\u0120TR": 5758, "\u0120bishop": 23766, "Econom": 44494, "\u0120noise": 6496, "\u00d9\u0134": 48311, "\u0120terrorists": 7263, "ieve": 16637, "\u0120dislike": 28101, "\u0120Needs": 28620, "\u0120viewership": 31472, "Ty": 36639, "\u0120intertw": 45552, "\u0120Ross": 4012, "\u0120clipped": 33914, "\u0120wipe": 20011, "\u0120structures": 6609, "\u0120bir": 23629, "\u0120misdemeanor": 13811, "\u0120Dynam": 32193, "\u0120cheerful": 33928, "Roberts": 42178, "\u0120kidn": 24781, "45": 1898, "aez": 26349, "Combat": 48170, "iken": 22966, "ITAL": 33069, "paces": 43693, "\u0120CBS": 3710, "\u0120Greenland": 31709, "\u0120bins": 23994, "lang": 32373, "\u0120Oak": 6482, "\u0120conditioned": 36550, "Coll": 37967, "\u0120presence": 2621, "Apart": 41041, "VERSION": 48195, "\u0120Tra": 8221, "\u0120123": 17072, "\u0120Columb": 25670, "oh": 2678, "\u0120creep": 26637, "\u00c3\u00a3": 17682, "\u0120braking": 26500, "eps": 26378, "SB": 12380, "\u0120Boo": 27052, "rar": 17254, "\u0120climate": 2147, "\u0120ushered": 30155, "\u0120gripped": 31082, "Think": 26644, "\u00f0\u0141\u0133": 31193, "\u0120fantasy": 8235, "\u0120Everett": 20961, "\u0120Dah": 25000, "\u0120eternity": 37077, "\u0120chores": 32824, "\u0120354": 39590, "\u0120presently": 10375, "asuring": 40786, "dead": 18758, "\u0120fuse": 38689, "\u0120rapp": 40614, "\u0120initiatives": 5287, "\u0120Nikki": 15141, "athan": 15322, "\u0120Am": 1918, "\u0120Chin": 17289, "\u0120Blaster": 46816, "\u0120embodiments": 48974, "BALL": 22572, "\u0120Terror": 23877, "\u0120idiot": 30603, "\u0120amendment": 8322, "\u0120liberation": 22211, "\u0120obsessed": 17593, "iggins": 36215, "683": 39062, "ridor": 46786, "\u00e9\u0139": 49117, "...": 734, "\u0120commission": 3210, "\u0120\".": 43809, "\u0120Hussain": 16656, "\u0120FANT": 48146, "\u0120showcase": 8283, "\u0120Mary": 2708, "olute": 27184, "\u0120Athletic": 8899, "pi": 19581, "\u0120adolescence": 38491, "\u0120Investigators": 7847, "\u0120claims": 1449, "\u0120adamant": 22668, "\u0120articulated": 33508, "\u0120loop": 14018, "\u0120Fiji": 19824, "\u0120accuse": 15311, "leader": 19086, "481": 34490, "\u0120sensitive": 5685, "\u0120credible": 10280, "\u0120LEDs": 37274, "\u0120Fuk": 32846, "\u0120chromosomes": 44253, "\u0120skysc": 29479, "713": 40349, "\u0120Vehicles": 23881, "apa": 17433, "\u0120angular": 42970, "\u0120................": 43636, "\u0120fetch": 23366, "\u0120worsh": 28824, "\u0120Tour": 3637, "David": 8773, "\u0120psyche": 36044, "\u0120sticky": 25247, "\u0120USA": 2805, "\u0120rebellious": 38017, "491": 37676, "\u0120rhyth": 41063, "eredith": 23178, "itized": 37174, "\u0120contacted": 5590, "\u0120theories": 14831, "\u0120Ple": 18486, "\u0120Jas": 15504, "\u0120doi": 36815, "\u0120Wal": 6092, "\u0120Elliott": 7624, "\u0120councillor": 15559, "\u0120Blooming": 27255, "\u0120considers": 9857, "\u0120affirmation": 35919, "ler": 1371, "ty": 2553, "\u0120sear": 38850, "\u0120Coal": 17801, "xes": 43849, "Meta": 48454, "\u0120percept": 45332, "\u0120Burn": 7960, "\u0120strang": 31083, "\u0120youths": 10769, "\u0120Luigi": 36848, "\u0120Intercept": 35141, "\u0120sustainable": 5068, "\u0120Schmidt": 13128, "\u0120pristine": 27441, "\u00e9\u00be\u012f\u00e5\u0138\u013c\u00e5\u00a3\u00ab": 50187, "\u00e6\u012a\u00a6": 49902, "\u0120laundry": 16937, "\u0120Promise": 30284, "orthy": 32894, "\u0120books": 2799, "\u0120Trust": 3101, "\u0120Steven": 5031, "\u0120verdict": 7035, "\u0120Sum": 9430, "\u00d1\u0124": 35555, "otrop": 47369, "Manchester": 20983, "enburg": 20533, "340": 24334, "\u0120memoir": 15860, "\u0120Ultimate": 19687, "\u0120lic": 29768, "\u0120Janeiro": 20698, "\u0120psychologist": 19902, "\u0120procure": 32560, "\u0120today": 452, "\u0120accepting": 8394, "iqu": 9071, "\u0120resisting": 18907, "\u0120242": 34676, "\u0120Eucl": 36873, "\u0120292": 37299, "ACC": 21678, "Demon": 44542, "ritical": 46492, "\u0120Implementation": 39046, "Construction": 43147, "Title": 46525, "\u0120fined": 10110, "\u0120roads": 3197, "\u0120reconciliation": 13229, "bench": 31240, "\u0120definitely": 2299, "\u0120Pref": 47242, "\u0120unofficial": 19707, "imens": 43611, "\u0120---": 21394, "\u0120intermittent": 33073, "\u0120advisable": 40791, "being": 9442, "\u0120emotional": 3722, "nex": 32918, "tymology": 48499, "\u0120Canaver": 48595, "hillary": 48926, "\u0120Abdullah": 12044, "\u0120reverence": 40578, "\u0120Pent": 17257, "Attributes": 49791, "\u0120TY": 39223, "\u0120explain": 3922, "lycer": 47688, "Enter": 30078, "\u0120odd": 8372, "\u0120perm": 25639, "\u0120fascinated": 27025, "unte": 29998, "\u0120Garmin": 35338, "\u0120morbid": 38513, "Pattern": 48689, "\u0120fusion": 24904, "\u0120rationality": 45374, "\u0120que": 1192, "\u0120Nations": 3076, "ifacts": 48007, "\u0120object": 7626, "\u0120compulsory": 25707, "\u0120Mug": 7148, "\u0120Predators": 18445, "470": 29748, "\u0120Acts": 37219, "\u0120Gomez": 11507, "\u0120provide": 694, "\u0120Ankara": 14606, "\u0120840": 41714, "\u00e6\u0143": 48531, "inant": 40542, "\u0120marry": 12908, "\u0120interviews": 5533, "otions": 26859, "\u0120cumbersome": 36190, "\u0120Shinji": 44972, "\u0120replies": 21390, "odynamic": 35357, "\u0120microphones": 35532, "\u0120Fer": 6838, "feed": 18790, "0": 288, "\u0120TB": 19009, "\u0120Berm": 42675, "Minor": 47246, "\u0120Farming": 38385, "\u0120Oaks": 17484, "\u0120offensively": 19688, "\u0120kicked": 5836, "\u0120implication": 29264, "\u0120rejuven": 26439, "\u0120garbage": 11671, "jar": 11978, "\"(": 47919, "\u0120Changing": 28382, "\u0120nerves": 17358, "norm": 42258, "\u0120BF": 43603, "although": 24648, "\u0120decks": 33507, "erous": 33961, "\u012031": 1105, "\u0120intentions": 11304, "\u00b1": 15389, "Times": 18921, "\u0120ship": 3627, "\u0120Girls": 7707, "\u0120Fifty": 22525, "plain": 21306, "\u0120cropped": 30197, "atial": 37438, "\u0120rubber": 11283, "NM": 31156, "olars": 43018, "istrate": 18104, "\u0120fights": 8333, "\u0120Kubrick": 43544, "\u0120cherry": 20075, "\u0120Sacrament": 46139, "\u0120Bat": 8324, "\u0120forwards": 14346, "olesc": 42612, "\u0120par": 2242, "\u0120pervasive": 27215, "munition": 48899, "\u0120Gork": 29532, "\u0120travelling": 7290, "\u0120Brid": 19853, "AAF": 27500, "gpu": 49375, "\u0120empowered": 19260, "\u0120Submit": 20503, "\u0120promoters": 28992, "709": 38139, "\u0120sufficient": 7719, "\u0120Lauder": 35736, "\u0120Depths": 48796, "everal": 49771, "freedom": 38608, "olving": 21241, "otom": 38062, "kinson": 34924, "\u0120town": 1139, "\u0120relinqu": 24637, "\u0120Butt": 21165, "\u0120Orders": 32335, "rolley": 30974, "\u0120adult": 4194, "\u0120Lilith": 48023, "\u0120serious": 1473, "rongh": 47924, "at": 415, "\u0120Supreme": 2124, "\u0120Thanks": 4557, "\u0120flo": 27325, "397": 34991, "usage": 47275, "Issue": 47676, "Now": 5975, "\u0120Navigation": 38986, "anchez": 43525, "\u0120Dying": 42008, "ught": 44041, "\u0120citing": 4319, "\u0120Ash": 4653, "\u0120Officer": 2817, "Jews": 44451, "\u0120knot": 17839, "\u0120Bowen": 23147, "\u0120eBay": 18595, "issue": 25268, "nette": 25582, "heng": 31075, "\u0120compatible": 16632, "\u0120capabilities": 5587, "Residents": 35129, "\u0120IS": 3703, "swer": 48977, "ishi": 12839, "ulated": 12944, "CONT": 46897, "\u0120unlaw": 49278, "\u00ce\u00b3": 48381, "\u0120nonetheless": 17428, "\u0120props": 26504, "\u0120Wage": 36438, "\u0120damaged": 5009, "Y": 975, "Rect": 48987, "Wall": 28216, "modified": 44887, "VII": 46031, "laugh": 43828, "gebra": 47097, "Fore": 34439, "\u0120Zin": 18332, "\u0120harshly": 33705, "glas": 39473, "endars": 47407, "\u01201024": 46959, "\u0120livestream": 29241, "xc": 45421, "\u0120Bethlehem": 26557, "\u0120Plato": 44207, "\u0120Frozen": 29372, "aire": 9556, "\u0120HDMI": 30393, "ubby": 35783, "\u0120Heroic": 47420, "\u0120roses": 25612, "\u0120probing": 24097, "\u00d9\u0132": 48112, "\u0120money": 418, "\u0120vent": 13228, "\u0120evenings": 23621, "\u0120creamy": 28110, "\u0120scares": 32327, "568": 40204, "\u0120explos": 41294, "rils": 43677, "\u0120\"/": 48789, "\u0120Whis": 27199, "aurus": 30236, "ologists": 10974, "\u0120deprived": 22632, "\u0120Protest": 32670, "\u0120pitches": 9606, "\u0120developmental": 18477, "\u0120Equip": 44064, "\u0120Jean": 5363, "\u0120convergence": 33345, "\u0120Sultan": 21283, "\u0120OTHER": 16536, "\u0120salmon": 14140, "\u0120Gingrich": 32700, "atography": 34226, "\u0120Skies": 39191, "\u012004": 14722, "Taking": 35490, "\u0120Bounce": 44111, "\u0120Objective": 44676, "iss": 3006, "\u0120CLSID": 50001, "\u0120Jude": 20099, "\u0120QU": 16944, "onew": 32991, "\u0120SF": 17575, "\u0120manifested": 38541, "aw": 1584, "\u0120Sch": 1811, "\u00c3\u00ba": 5874, "\u0120Breakfast": 18799, "\u0120impair": 29210, "\u0120Buc": 13186, "Ent": 30495, "umers": 35954, "\u0120----": 45376, "\u0120renovated": 20882, "\u0120aboard": 10009, "powder": 42289, "girlfriend": 22943, "\u0120vigorously": 25555, "\u0120Assignment": 46091, "\u0120RU": 40114, "\u0120losing": 2086, "\u0120comment": 1129, "\u0120143": 22726, "BOX": 42763, "\u0120collected": 4786, "\u0120misery": 23110, "pause": 44970, "Members": 31339, "afort": 46531, "otted": 14265, "umper": 33004, "\u0120Kel": 8730, "\u0120Stur": 26321, "Tan": 40461, "'t": 75, "\u0120ingredients": 7075, "iatric": 21303, "\u0120nan": 14770, "\u0120overwhelm": 36986, "\u0120recipe": 10324, "LS": 10463, "\u0120Oval": 12077, "During": 14229, "\u0120Huang": 25918, "\u0120Euph": 35027, "\u0120cooked": 14166, "Kent": 32057, "BUS": 22295, "Again": 34790, "\u0120Worth": 13399, "\u0120dissatisfaction": 31776, "mediately": 36382, "imester": 38417, "fu": 23359, "\u0120statistic": 23725, "\u0120meters": 7679, "\u0120advantages": 12340, "lap": 22489, "antage": 34237, "\u0120malice": 39625, "\u0120Kentucky": 4449, "\u0120STAND": 40358, "\u0120resort": 5753, "\u01201964": 17616, "Sam": 21169, "\u0120Develop": 15347, "\u0120wed": 18862, "izard": 44417, "\u0120Nir": 28140, "bah": 28185, "killer": 30563, "\u0120forfe": 31844, "1988": 42853, "-+": 48660, "urtles": 48966, "\u0120DOT": 30510, "Collection": 48426, "ealing": 27638, "\u0120Chel": 21626, "ThumbnailImage": 50082, "\u0120occurring": 14196, "\u01201865": 43172, "\u0120Shirley": 18623, "\u0120Jul": 9654, "atever": 49716, "\u0120Arabic": 19645, "\u0120stabilize": 21020, "\u0120filed": 1658, "Dear": 23314, "\u0120Boris": 14335, "BE": 8827, "\u0120Lug": 25486, "\u0120battery": 3822, "quez": 9343, "\u0120Rw": 29204, "\u0120muscular": 26163, "\u0120Lyft": 18648, "\u0120unquestion": 35718, "\u0120Odd": 17448, "\u0120Beats": 31976, "commercial": 33798, "worms": 40799, "\u0120midrange": 42744, "\u0120Avoid": 20865, "Church": 43138, "zbek": 48142, "cyclopedia": 49484, "\u00ac\u00bc": 49794, "\u0120poem": 19340, "\u0120issues": 743, "hovah": 49983, "\u0120Damon": 20429, "\u0120butterfly": 24317, "AE": 16329, "\u0120Ernst": 22932, "\u0120rejo": 24586, "Pref": 48670, "\u0120wrest": 22160, "Last": 10285, "\u0120MSNBC": 20054, "406": 35629, "full": 16320, "Raven": 43077, "\u0120Arcade": 39090, "react": 44043, "debug": 49208, "\u0120Pengu": 49402, "\u0120sophisticated": 10364, "\u0120evolutionary": 29832, "\u0120Nec": 35637, "\u0120discrep": 49348, "\u0120matchups": 22732, "ignore": 47072, "\u0120furiously": 39202, "\u0120drilling": 7802, "arding": 16014, "Knowing": 40170, "\u0120Layer": 43262, "\u0120Cab": 8434, "\u0120Truman": 31117, "Format": 48587, "\u0120Sam": 1960, "\u0120cliffs": 35952, "Textures": 49851, "\u0120spoon": 25409, "\u0120Female": 23172, "\u0120techn": 23839, "\u0120mango": 32184, "\u0120Shal": 25400, "\u0120effort": 1351, "\u0120pipe": 11397, "\u0120DIS": 15421, "unic": 26488, "\u0120exhaustion": 30567, "\u0120governs": 37138, "pattern": 43106, "\u0120serotonin": 43399, "::::": 49710, "als": 1536, "DeliveryDate": 50215, "\u0120Canal": 19710, "Music": 30591, "addon": 42246, "\u0120Judges": 27896, "\u0120resorted": 30538, "\u0120adolesc": 48435, "\u0120sens": 18105, "\u0120hay": 13460, "\u0120closer": 2789, "\u0120Core": 9025, "witz": 35639, "\u0120averaged": 8329, "\u0120Nobody": 13308, "employed": 28326, "REP": 44722, "\u0120populous": 24347, "Sign": 25675, "\u0120shattered": 17306, "\u0120saturated": 24191, "Create": 44758, "\u0120Ukip": 38532, "\u0120advertisers": 15857, "dat": 36146, "\u0120deviation": 38369, "roth": 42020, "\u0120Sword": 39940, "\u0120Alright": 41881, "ricia": 45127, "Evil": 46574, "\u0120illicit": 16108, "\u0120Captain": 8977, "trans": 9981, "\u0120contributes": 17992, "\u0120Achievements": 47557, "\u0120kh": 16447, "\u0120envision": 25954, "\u0120guilty": 2181, "Flash": 42748, "\u0120aims": 5026, "onduct": 26593, "\u0120wholly": 16123, "\u0120quickly": 1335, "\u0120Hunter": 7126, "\u0120classrooms": 15083, "\u0120sermon": 33107, "\u0120spawned": 29219, "\u0120Mono": 44512, "\u0120village": 3375, "\u0120bitten": 27660, "ison": 4060, "\u0120predictive": 27930, "\u0120reck": 21493, "idepress": 48346, "\u0120registry": 22976, "Race": 40246, "\u0120abol": 38226, "olver": 35934, "\u0120Brigham": 37802, "\u0120shirt": 6399, "shell": 39803, "\u0120anybody": 5670, "\u0120ay": 16749, "\u0120criticism": 3633, "\u0120Jacob": 5747, "\u0120Karen": 7836, "\u0120overpower": 37833, "\u0120Avenger": 44985, "Tracker": 43438, "\u0120reactionary": 41313, "\u00e3\u0124\u00bf": 49343, "\u0120CD": 7522, "owan": 20409, "\u0120Paige": 22170, "atell": 26142, "\u0120Average": 8317, "````": 49972, "\u010d": 50121, "Box": 26621, "\u0120headers": 42211, "\u00e2\u0122": 17, "\u0120flower": 14214, "\u0120AC": 7224, "\u0120circulating": 17215, "\u0120China": 436, "\u0120hes": 36279, "\u0120tyranny": 36333, "ogene": 44288, "\u0120Philipp": 25955, "book": 6298, "\u0120ob": 6168, "\u0120Klux": 33373, "\u0120headline": 8707, "\u0120Jack": 2722, "irs": 21098, "\u0120Science": 4662, "anasia": 37935, "mess": 38177, "\u0120,\"": 41066, "astical": 40707, "\u0120hallway": 22097, "\u0120Rabbit": 27960, "Content": 45463, "\u0120Ultimately": 13832, "\u0120Monster": 15920, "rock": 9144, "\u0120Colleg": 26096, "\u0120redevelop": 30607, "\u0120comprehensive": 5145, "\u0120patent": 11354, "pps": 35849, "office": 23252, "\u0120Stout": 37851, "\u0120plate": 5299, "\u0120artificial": 7350, "tr": 4328, "\u0120Gh": 5977, "\u0120sustainability": 11128, "\u0120oversee": 13752, "\u0120pint": 28143, "\u0120Salon": 31941, "Dead": 33838, "Cold": 38191, "acements": 38545, "\u0120Bundesliga": 17572, "\u0120signify": 40173, "bender": 40483, "\u00e2\u0122\u00a6\u00e2\u0122\u00a6\u00e2\u0122\u00a6\u00e2\u0122\u00a6": 45876, "\u0120universities": 6630, "\u0120approaching": 8955, "\u0120revision": 18939, "\u01201976": 14488, "\u0120Priv": 27876, "\u0120drawback": 41113, "\u0120Docker": 42221, "\u0120wards": 24725, "\u0120loops": 37482, "Nit": 46790, "\u0117": 50131, "\u0120electro": 29541, "Russell": 40575, "omics": 26382, "make": 19746, "\u0120traction": 14443, "\u0120fundamentally": 16894, "\u0120gravel": 26923, "\u0120Agents": 24854, "\u0120Maple": 12016, "\u0120Merc": 13873, "uffy": 33650, "American": 4310, "\u0120seize": 15986, "\u0120frustrated": 8164, "\u0120glut": 23457, "\u0120folklore": 39385, "ilitating": 41160, "\u00e3\u0125\u0133": 49630, "\u0120untold": 35921, "SP": 4186, "\u0120Tut": 25151, "\u0120specifies": 42042, "Fa": 44663, "Dig": 42501, "\u0120Eternity": 45877, "apeake": 21192, "\u0120progresses": 26658, "\u0120tampering": 20728, "\u0120Nile": 22568, "amous": 30681, "\u0120enclosed": 32116, "\u0120Maximum": 35540, "\u0120Western": 2027, "\u0120sheer": 11708, "\u0120adjustable": 29861, "\u0120takedown": 31517, "irlfriend": 38883, "\u0120disks": 42637, "\u0120WWII": 29001, "{\\": 49918, "\u0120chest": 7050, "olin": 21716, "\u0120execut": 38902, "\u0120iceberg": 26937, "\u0120Palestin": 49141, "\u012083": 8101, "\u0120ending": 3558, "\u0120conc": 10146, "\u0120alter": 11330, "\u0120confusing": 15868, "\u0120quer": 31212, "shine": 39443, "\u0120Bert": 12975, "docs": 44071, "\u0120Entity": 46718, "\u0120appra": 27200, "\u0120hoax": 23195, "\u0120glimpse": 11986, "\u0120motive": 12704, "\u0120gain": 2364, "\u0120winger": 10331, "\u0120Parsons": 20384, "\u0120Bran": 22287, "\u0120curator": 24862, "\u0120vigilante": 37322, "\u0120abras": 37722, "\u0120series": 651, "\u0120buying": 2159, "eus": 41728, "\u0120overturn": 16164, "\u0120incendiary": 36114, "\u0120immediately": 1320, "\u0120AMERICA": 41661, "Js": 44962, "hetamine": 45634, "********************************": 47639, "\u0120wil": 27487, "\u0120eclipse": 10784, "Social": 28565, "\u0120economical": 33366, "\u0120jewelry": 11449, "styles": 48070, "\u0120hill": 9910, "',\"": 24095, "\u0120<<": 48188, "-------": 48712, "\u0120superflu": 44459, "Rachel": 41415, "20": 844, "inkle": 15673, "\u0120free": 481, "TO": 6390, "\u0120Steam": 18120, "\u0120Ske": 20448, "\u0120pledging": 24760, "FOX": 26931, "\u0120Enhanced": 37542, "\u0120overriding": 38078, "\u0120technological": 9874, "\u0120IN": 2808, "\u0120WHO": 13387, "istical": 44573, "\u0120Yosemite": 29368, "\u0120unfortunately": 9574, "\u0120innoc": 40374, "ventory": 49016, "antes": 16738, "\u0120instinct": 21668, "\u0120Moon": 5648, "\u0120pedestrian": 11038, "ify": 4591, "brid": 21676, "\u0120thorn": 28869, "Unknown": 44241, "TPS": 45796, "ethy": 45605, "*****": 40255, "\u0120Elven": 49259, "19": 1646, "\u0120discount": 6720, "\u0120masses": 15444, "\u0120weddings": 21596, "\u0120Indo": 27617, "\u0120population": 1956, "\u0120owed": 12942, "izable": 38142, "Synopsis": 49388, "\u0120far": 444, "Py": 42734, "\u0120IR": 11594, "\u0120cortical": 47615, "\u0120LLP": 17633, "Vert": 42195, "\u0120certs": 49112, "\u0120bug": 13673, "\u0120Eaton": 19712, "\u0120Sprite": 46590, "00": 612, "\u0120Sect": 35770, "\u0120secretaries": 28951, "ford": 1891, "Che": 16764, "\u0120baked": 17241, "\u0120PARK": 25061, "\u0120crippling": 26192, "Currently": 35416, "locks": 37536, "\u0120paid": 1199, "\u0120Howard": 5218, "USE": 27291, "\u0120substrate": 44017, "\u0120theology": 37007, "area": 7907, "ards": 5954, "\u0120wearing": 2498, "\u0120tumors": 23991, "As": 1620, "\u012090": 1814, "\u0120hormones": 25641, "pal": 18239, "\u0120Career": 18792, "Domain": 48527, "so": 2527, "acker": 13374, "\u0120punk": 19742, "\u0120bloom": 24255, "\u0120usb": 49030, "Region": 43575, "\u0120suppression": 25276, "Led": 40794, "\u0120officer": 1036, "\u0120maritime": 15265, "\u0120crossing": 6724, "\u0120slots": 20063, "\u0120Early": 8451, "\u0120dh": 19480, "\u0120nos": 13736, "\u0120Property": 10491, "dj": 26029, "\u0120Smoking": 38001, "icester": 40755, "\u0120165": 20750, "\u0120coughing": 33169, "\u0120Jing": 37198, "pert": 11497, "\u0120skating": 14303, "\u0120distracted": 16573, "\u0120lawful": 23660, "\u0120Pose": 25882, "\u0120Ja": 9982, "\u0120Syri": 35938, "item": 36907, "\u0120wh": 8401, "\u0120imprison": 43210, "Changed": 49108, "Configuration": 49602, "\u0120graft": 19433, "avy": 19909, "fac": 33492, "\u0120Craft": 15034, "\u0120competed": 12393, "\u0120tresp": 26474, "\u0120GPA": 34408, "PAC": 35765, "Body": 41024, "ocaust": 43328, "\u0120reconstruction": 18228, "\u0120Uriel": 48101, "\u0120kb": 47063, "andal": 17856, "\u0120Typh": 46518, "\u00e3\u0123\u00af": 48549, "\u0120gaming": 6548, "ainted": 30305, "\u0120farmer": 10305, "\u0120importing": 25766, "\u0120().": 48989, "\u0120chance": 778, "rin": 5719, "\u0120fel": 14383, "\u0120Tyson": 14457, "\u0120groom": 17027, "\u0120prefrontal": 46695, "\u0120Feedback": 40987, "\u0120gift": 4085, "\u0120thought": 802, "\u0120Milan": 7338, "\u0120varying": 15958, "atively": 10481, "\u0120tear": 7366, "ature": 18830, "\u0120trees": 3980, "\u0120editors": 15136, "ifestyle": 27210, "\u013f": 46, "ito": 4842, "\u0120resigned": 6490, "\u0120Tub": 27773, "\u0120initiating": 32086, "\u0120Jou": 38534, "THING": 42965, "2003": 35153, "eto": 15758, "\u0120call": 486, "\u0120TEAM": 27597, "\u0120volcan": 31783, "\u0120captive": 24145, "estine": 40164, "emb": 20506, "Brother": 43422, "\u0120Brooke": 17806, "\u0120CONTR": 32568, "604": 33287, "\u0120apartments": 10867, "\u0120Really": 16923, "\u0120surplus": 10499, "\u0120Abyss": 45999, "\u0120Ag": 3303, "\u0120temporarily": 8059, "\u0120overflow": 34391, "\u0120slap": 17605, "\u0120beasts": 39498, "\u0120fraction": 13484, "\u0120GN": 31245, "Born": 39722, "\u0120RAID": 44213, "\u0120successful": 1800, "\u0120glob": 37544, "Americ": 46109, "\u0120implements": 36987, "errilla": 46148, "\u0120Ballistic": 46589, "Hig": 47296, "\u0120Tory": 10886, "\u0120overthrow": 23850, "Peace": 39370, "\u0120similar": 1122, "\u0120Parkway": 15787, "\u0120Passed": 45498, "little": 27635, "inct": 24115, "PATH": 48468, "\u0120humility": 27352, "\u0120Autom": 6628, "\u0120relies": 12438, "\u0120payoff": 34750, "\u0120seeded": 24141, "farious": 48813, "\u0120scam": 10656, "\u0120236": 34962, "\u0120interest": 773, "\u0120terms": 1110, "\u0120fiery": 19068, "\u0120sheet": 5462, "CI": 21701, "\u0120Dublin": 7378, "\u0120rubbish": 22051, "\u0120crem": 26773, "obil": 31474, "\u0120wast": 42306, "\u0120socialists": 42371, "\u0120immobil": 43846, "\u0120FW": 42444, "\u0120question": 864, "\u0120lived": 3033, "\u0120Technician": 42951, "\u0120add": 1606, "\u0120*": 1009, "\u0120liberal": 6176, "Fall": 31593, "\u0120Wouldn": 39269, "\u0120inver": 39312, "\u0120rapist": 33226, "\u0120deepest": 19762, "\u0120surgeries": 15948, "\u0120OC": 18726, "\u0120kicks": 9090, "\u0120constraint": 39816, "\u0120Mutual": 21248, "\u0120pet": 4716, "\u0120undercover": 17814, "abulary": 38737, "alth": 29547, "\u0120ornament": 40932, "\u0120Taliban": 7597, "\u0120profound": 13960, "\u0120publishing": 10467, "\u0120Act": 1783, "\u0120Craigslist": 37439, "\u0120ensl": 42408, "\u0120dec": 5044, "\u0120Cliff": 19428, "char": 24262, "2007": 30741, "\u0120childish": 40531, "microsoft": 48048, "\u0120stands": 3311, "\u0120shakes": 25229, "oln": 33537, "sold": 14908, "\u0120Humph": 16788, "\u0120More": 901, "stars": 16823, "\u0120HB": 22783, "research": 6762, "123": 19644, ".).": 24521, "\u0120ovarian": 29944, "\u0120dop": 32331, "amily": 32455, "Italian": 39251, "\u0120Expend": 39923, "\u0120licking": 41167, "\u0120underside": 41560, "\u0120ankle": 7451, "Wheel": 43560, "\u00c3\u00b6r": 17920, "\u0120198": 30858, "fortable": 38093, "Without": 20867, "\u0120recreate": 27981, "agnetic": 44650, "enty": 24997, "\u0120Thought": 30631, "\u0120Scout": 17597, ",,": 38581, "Fi": 9474, "\u0120argument": 4795, "\u0120PROGRAM": 44101, "agraph": 44947, "esville": 25219, "eless": 13802, "z": 329, "\u0120professionalism": 23210, "\u0120dictators": 35451, "\u0120slow": 2635, "\u0120wallpaper": 37103, "\u0120Azure": 25959, "\u0120vm": 48643, "\u0120Within": 9842, "\u0120Hawaiian": 19806, "\u0120Matrix": 29830, "\u0120Haf": 24256, "\u0120color": 3195, "\u0120comparisons": 17941, "\u0120any": 143, "\u0120Beta": 25905, "\u0120spill": 10923, "\u0120nasty": 15455, "\u0120mirror": 9807, "missions": 23363, "UNCH": 25311, "actually": 40808, "\u0120various": 1337, "\u00c3\u0124": 2537, "uate": 21269, "\u0120channel": 4238, "\u0120sounding": 23266, "\u0120assessments": 15011, "228": 29185, "\u0120predicament": 33487, "\u0120(*": 43305, "\u0120lions": 25711, "Repeat": 45764, "odox": 47345, "\u0120anecdote": 40938, "ACH": 11083, "\u0120forming": 12748, "regon": 46670, "Stop": 22174, "\u0120dismissal": 14289, "244": 30043, "\u0120252": 34660, "\u0120actual": 3031, "Resource": 47279, "\u0120USE": 33359, "></": 49526, "\u0120\u00c2\u00af": 48465, "\u0120CNBC": 17826, "\u0120tribute": 6430, "\u0120Manufacturer": 40735, "\u0120resists": 44430, "\u0120coin": 12911, "hyde": 47961, "ila": 4882, "Gen": 15887, "\u0120bombers": 20824, "\u0120Model": 7192, "project": 28258, "\u0120inscription": 41980, "\u0120chair": 3428, "\u0120query": 25860, "\u0120affected": 2132, "Baby": 30047, "\u0120Programming": 39538, "\u0120Restrict": 40950, "\u0120UNITED": 27925, "\u0120Rest": 8426, "\u0120Papa": 23106, "star": 3641, "\u0120facilit": 30893, "After": 4993, "pkg": 48481, "\u0120smarter": 18369, "\u0120Simulation": 44989, "ongyang": 46125, "\u0120Currency": 27158, "\u0120sculpture": 18185, "\u0120Patent": 35720, "\u0120ANC": 11399, "\u0120belly": 18951, "oor": 4623, "\u0120improves": 15296, "\u0120smallest": 15654, "\u0120slightest": 31619, "Nation": 32873, "REE": 30009, "Ta": 38495, "\u0120Optim": 28688, "\u0120alarm": 8054, "\u0120unicorn": 35545, "atter": 7933, "web": 10534, "\u0120Journalism": 25366, "\u0120Geological": 26008, "Vision": 36753, "claimed": 29639, "\u0120admit": 8109, "\u0120straw": 14482, "\u0120tabs": 26249, "\u0120assailant": 29095, "\u0120Compensation": 35018, "\u0120lia": 38244, "\u0120arist": 38939, "\u0120fearsome": 39185, "Via": 42567, "\u0120GET": 7777, "\u0120summ": 32933, "ique": 5150, "orian": 23943, "\u0120Satan": 33649, "IFF": 24377, "523": 39864, "\u0120Jelly": 39912, "\u0120copyright": 4857, "\u0120\"$": 44757, "slot": 47034, "Document": 47088, "\u0120kitchen": 4647, "IX": 9482, "\u0120Inspired": 27464, "\u0120Rosa": 14290, "\u0120stored": 10696, "\u0120thumb": 15459, "\u00c2\u00a2": 18812, "\u0120Membership": 35522, "\u0120critical": 2008, "\u0120oath": 14270, "\u0120Hank": 22216, "\u0120blitz": 23492, "\u0128": 27819, "362": 35665, "\u0120car": 512, "\u0120terr": 17420, "\u0120wreckage": 22520, "\u0120redeem": 24670, "\u0120Sag": 16833, "305": 27062, "mong": 27669, "rh": 20378, "\u0120sourced": 16898, "\u0120Maxim": 28063, "\u0120Regulations": 30793, "aos": 34317, "\u0120Armstrong": 11406, "\u0120Gle": 19600, "\u0120tons": 7741, "\u0120FIN": 20381, "\u0120Es": 7065, "Keith": 39250, "\u0120Kurt": 12255, "\u0120jour": 41329, "Damn": 44604, "rants": 25474, "erer": 7160, "\u0120deals": 2656, "\u0120attractive": 6043, "omez": 40304, "\u0120Lethal": 43817, "OLOGY": 41819, "169": 28219, "aldehyde": 42842, "Spons": 43753, "\u0120repro": 42741, "\u0120Admiral": 25009, "\u0120Description": 33425, "\u0120______": 47259, "Street": 24265, "rition": 46956, "arcer": 45734, "\u0120antenna": 29236, "\u0120FREE": 5198, "\u0120throw": 3211, "\u0120exhibitions": 23767, "\u0120cuff": 36201, "SE": 3388, "\u0120Gow": 21400, "\u0120Sav": 9721, "\u0120Kear": 19878, "\u0120hepatitis": 24426, "\u0120Coy": 27767, "uvian": 32852, "\u0120destination": 6381, "\u0120Ent": 9860, "\u0120instrumental": 14123, "\u0120Serbian": 24229, "urrency": 37079, "attacks": 25764, "\u0120exhibited": 22495, "\u0120dissu": 33874, "815": 38828, "hospital": 40179, "\u0120Codec": 48509, "\u0120minded": 32945, "oil": 14189, "\u0120Plaint": 42946, "\u0120Strat": 21074, "Steven": 33184, "\u0120want": 236, "\u0120retailers": 5301, "ons": 1790, "chel": 22448, "fb": 36028, "GAN": 38416, "\u0120spawns": 47575, "namese": 47650, "\u0120datas": 48671, "soft": 24810, "ilee": 19016, "\u0120science": 2866, "\u0120Four": 3759, "Voice": 36294, "\u0120McInt": 18855, "helle": 28459, "\u0120Live": 3561, "\u0120traveled": 8468, "Help": 28780, "\u0120Regiment": 33988, "\u0120slowed": 9546, "STEM": 43896, "\u0120callback": 46557, "\u0120February": 902, "\u0120needle": 19012, "\u0130": 12736, "\u0120annotations": 47234, "cert": 25782, "\u0120sank": 14501, "\u0120printers": 29379, "\":-": 50000, "rem": 5593, "\u0120Than": 15446, "\u0120Rou": 20716, "\u0120doing": 608, "\u0120rifles": 17509, "\u0120Cull": 29169, "\u0120Darkness": 39824, "primary": 42205, "\u0120servicing": 21529, "\u0120snag": 29650, "Introduced": 49360, ".</": 49803, "\u0120Generations": 42137, "\u0120graduated": 8505, "\u0120picks": 5916, "CBS": 8949, "\u0120switched": 12012, "\u0120concentrations": 26069, "fascist": 40506, "\u0120Dialogue": 33854, "adays": 34461, "\u0120Educational": 24720, "\u0120dignity": 12028, "\u0120Width": 47107, "acco": 20469, "\u0120smartest": 35895, "\u0120wears": 15033, "BUG": 48905, "ERY": 22570, "\u0120banker": 15573, "Van": 34230, "\u0120wrongful": 28008, "hift": 46853, "sets": 34462, "\u0120Retirement": 15026, "\u0120Sana": 24497, "\u0120manga": 38996, "\u0120jew": 14917, "\u0120confessed": 13901, "\u0120boasted": 21078, "NF": 25356, "\u0120Man": 1554, "\u0120Turk": 19683, "fit": 14307, "\u0120assess": 7118, "\u0120facial": 11560, "\u0120Mao": 23441, "\u0120antibodies": 32648, "during": 37460, "\u0120recess": 23459, "\u0120Website": 17595, "UTC": 41934, "\u0120summarizes": 43668, "anguage": 49520, "gging": 23941, "essler": 40608, "rehensible": 39438, "\u0120intern": 11587, "\u0120cute": 11962, "\u0120imm": 15192, "\u0120queens": 33662, "\u0120congregation": 20478, "\u0120Cathy": 23519, "\u0120GPUs": 37658, "\u0120CentOS": 47686, "\u0120often": 747, "\u0120depends": 7971, "\u0120constituency": 12329, "\u0120mar": 4401, "\u0120Vick": 18889, "\u0120Honest": 39016, "\u0120sealed": 10497, "\u0120intensify": 24364, "\u0120Dy": 10179, "\u0120dirty": 11216, "\u0120neutral": 7974, "\u0120challenging": 4087, "atives": 11649, "anish": 28627, "\u0120grain": 10924, "\u0120dude": 22633, "\u0120Schl": 21351, "erest": 44488, "MR": 12642, "\u0120wretched": 42824, "\u0120recharge": 25850, "\u0120\u00c2\u00a5": 30844, "\u0120Works": 9478, "\u0120prevent": 2097, "Marcus": 23952, "\u0120Marino": 30713, "\u0120unfolds": 30853, "\u0120Harvest": 18413, "MN": 35306, "!:": 44626, "\u0120Snape": 47535, "\u0120FANTASY": 48215, "\u0120robot": 9916, "\u0120Potter": 10997, "\u0120uncle": 11992, "\u0120Networks": 14641, "\u0120amaz": 42402, "\u0120Cerberus": 44150, "rote": 26125, "irtual": 49110, "\u0120Elm": 21595, "\u0120Stupid": 44462, "xml": 47858, "\u0120thrive": 12692, "Tip": 43691, "\u0120LAPD": 32908, "liest": 27911, "\u0120Stab": 34138, "\u0120Madrid": 3622, "\u0120Montana": 8920, "\u0120Hernandez": 7816, "\u0120Geoff": 20708, "\u0120gon": 38197, "jobs": 41207, "\u0120feeble": 42217, "\u0120psy": 43114, "\u0120wage": 5007, "\u0120Woman": 9117, "\u0120belongs": 12918, "enc": 14210, "March": 11770, "prefix": 49321, "uce": 15431, "\u0120really": 269, "Cart": 44394, "\u0120integrate": 13997, "\u0120prevents": 17410, "Online": 19449, "twitter": 1556, "\u0120reapp": 22266, "\u0120Bene": 32044, "\u0120strengthens": 29820, "\u0120mercenary": 44257, "\u0120Cris": 19910, "\u0120###": 22560, "\u0120lobb": 40704, "Georgia": 39331, "\u0120ordinarily": 40077, "\u0120ag": 5951, "\u0120Extension": 22537, "arsh": 14980, "aminer": 46889, "\u0120Leonard": 8763, "\u0120Jazeera": 32427, "\u0120140": 9680, "\u0120Dew": 17340, "\u0120Colts": 9542, "\u0120installing": 15602, "\u0120perceptions": 22981, "red": 2050, "\u0120Resort": 10989, "\u0120Sew": 19213, "\u0120Gillespie": 25418, "\u0120indecent": 24502, "tom": 33063, "mares": 47763, "\u0120\u00f0\u0141": 8103, "\u0120client": 3653, "\u0120impaired": 15241, "\u0120ecstasy": 37695, "\u0120Remix": 43902, "Whereas": 45210, "\u0120miscon": 47434, "\u0120Working": 11214, ":\"": 36856, "Fort": 23565, "industrial": 27739, "\u0120GeForce": 36988, "387": 32498, "This": 713, "\u0120exh": 30345, "mining": 33527, "15": 996, "atto": 28741, "ogging": 24096, "\u0120handc": 42149, "Average": 46315, "\u0120accurate": 6030, "\u0120snapped": 10098, "undy": 29868, "\u0120Daughter": 30803, "................": 47793, "\u0120ILCS": 49821, "\u0120Amir": 20929, "tery": 13237, "zhen": 21830, "\u0120swinging": 19143, "\u0120blankets": 20850, "\u0120lungs": 19147, "\u0120buffer": 21944, "efficiency": 33939, "\u0120vector": 37681, "\u0120cheers": 20581, "\u0120Poles": 37181, "\u0120Americans": 1791, "ice": 2463, "\u0120toxin": 38977, "\u0120hereditary": 40633, "\u0120Men": 4011, "\u0120pros": 15501, "\u0120Rodney": 18206, "\u0120indie": 18572, "\u0120Ari": 6416, "\u0120blasting": 26831, "Ka": 34118, "\u0120reservoir": 22039, "479": 35414, "\u0120Seller": 44795, "ooming": 40666, "\u0120Blades": 37160, "996": 39659, "Offic": 43188, "sql": 49089, "\u0120their": 49, "\u0120shown": 2343, "\u0120appearing": 8165, "\u0120optimal": 19329, "\u0120Venice": 19512, "\u0120BEST": 23435, "ciating": 48027, "\u0120int": 6979, "\u0120foundation": 4811, "\u0120modulation": 46404, "\u0120125": 10529, "iffs": 13980, "\u0120disgr": 25425, "ulton": 42094, "cro": 23324, "\u0120Grand": 2374, "\u0120Powers": 22433, "\u0120\u00c2\u0142\u0120\u00c2\u0142": 50145, "Dynamic": 47515, "\u0120\"\u00e2\u0122\u00a6": 28553, "ordan": 29742, "\u0120Grant": 5980, "ato": 3938, "\u0120Provincial": 17684, "\u0120hammer": 13547, "883": 40714, "iOS": 45773, "Comp": 24699, "\u0120behave": 18871, "\u0120Isa": 23182, "224": 28835, "\u0120Guid": 27419, "\u0120flowers": 7716, "\u0120..........": 29462, "\u0120Yates": 18491, "\u0120Fres": 32780, "\u0120mystical": 39795, "edient": 47293, "\u0120groundwater": 24956, "\u0120Against": 9174, "\u0120resting": 18403, "\u0120yet": 648, "\u0120Filip": 21376, "\u0120popular": 1406, "vr": 37032, "\u0120surrogate": 28247, "\u0120Countdown": 40308, "hedral": 46668, "\u0120nested": 46902, "\u0120Mus": 5950, "\u0120TRUE": 44929, "\u0120Tim": 2668, "Ren": 34837, "\u0120disturbed": 22938, "\u0120Stories": 9739, "grey": 43268, "\u0120encountered": 13590, "\u0120Ruler": 43493, "\u0120invited": 4036, "ress": 5224, "\u0120discourage": 21662, "\u0120Volt": 36589, "\u0120Classical": 39641, "ivers": 10744, "\u0120inj": 30272, "ATOR": 39261, "\u0120Illegal": 36993, "Rub": 40821, "\u0120Dorothy": 23260, "\u0120router": 30577, "\u0120Oracle": 14627, "606": 36101, "asis": 17048, "\u0120sending": 3981, "\u01201984": 11724, "\u0120Units": 24525, "\u0120Jeb": 26315, "images": 39472, "\u0120blind": 7709, "Ash": 29460, "\u0120defy": 29160, "\\/": 48182, "\u00e7\u0126": 49214, "amping": 26114, "elin": 29097, "\u0120custom": 6777, "\u0120concoct": 36956, "download": 41536, "WD": 18101, "Inter": 26267, "\u0120um": 7252, "ucky": 19873, "\u0120Istanbul": 12275, "Hmm": 47519, ":#": 48919, "\u0120delaying": 20053, "Bow": 39807, "\u0120benefits": 1795, "F": 597, "\u0120showing": 2018, "birds": 17921, "\u0120advisory": 7640, "efe": 25793, "unless": 36100, "vm": 38486, "\u0120attackers": 13463, "\u0120Spirits": 34763, "1995": 41295, "\u0120act": 1760, "\u0120Hendricks": 24385, "\u0120strapped": 28589, "\u0120obst": 30896, "\u0120ess": 37214, "\u0120Gur": 11062, "\u0120Municip": 26169, "urate": 23412, "\u0120ev": 7630, "met": 5646, "\u0120traders": 5539, "ault": 8839, "\u0120vegetable": 16090, "\u0120oval": 31638, "redibly": 32340, "\u0120relaxation": 26545, "fail": 37694, "UTH": 37985, "\u0120grounded": 16335, "Life": 12116, "\u0120Rocket": 21599, "\u0120rack": 20004, "ennial": 13952, "\u0120fax": 30561, "opez": 41816, "\u0120Tav": 21029, "armor": 48705, "\u0120__": 27148, "\u0120VERY": 39789, "70710": 49928, "\u0120Nat": 10037, "\"],": 49177, "vier": 33931, "583": 39123, "\u0120patiently": 30727, "\u0120Become": 26861, "\u0120spend": 1930, "ND": 13457, "\u0120Laurel": 22729, "\u0120tranqu": 36474, "\u0120Steph": 20863, "ardi": 11147, "\u0120shadow": 9099, "\u0120dru": 29695, "\u0120strengthen": 5920, "\u0120mill": 7259, "\u0120billing": 19892, "Pr": 21077, "\u0120showers": 3535, "\u0120mortgages": 16017, "\u0120haw": 15935, "\u0120Jama": 17978, "hol": 9649, "rollment": 38913, "================": 46945, "killed": 39132, "\u0120stereotyp": 40550, "tor": 10321, "\u0120obstruction": 17026, "\u0120Hispanics": 33247, "990": 27204, "\u0120alike": 9829, "\u0120tremb": 46754, "Unt": 47402, "\u0120PERSON": 42733, "\u0120battling": 8073, "\u00a5\u0140": 49676, "\u0120optimistic": 7168, "Pal": 23166, "\u0120idle": 25562, "fam": 27505, "abit": 30820, "\u0120407": 32301, "\u0120bearing": 12205, "che": 2871, "\u0120premise": 18805, "\u0120Willow": 22096, "Harris": 37302, "\u0120stranger": 12443, "\u0120Pharaoh": 43901, "POSE": 47500, "perse": 48274, "\u00e3\u0125\u012a": 49280, "\u00e3\u0125\u0137\u00e3\u0124\u00a9": 49885, "\u0120relatively": 3487, "\u0120displays": 8612, "\u0120purs": 26934, "\u0120CPC": 37389, "\u0120Anchorage": 24705, "ries": 4458, "\u0120Monroe": 12885, "\u0120female": 2182, "\u0120Pillar": 38464, "\u0120Wyr": 46977, "lucent": 48638, "\u0120ramp": 6854, "\u0120pos": 8593, "\u0120Vladimir": 6546, "\u0120suited": 14756, "\u0120LSD": 37619, "\u0120aph": 42547, "\u0120THAT": 24394, "\u0120prob": 16245, "\u0120MT": 14077, "\u0120tendencies": 27109, "\u0120independents": 28893, "anding": 20515, "\u0120hue": 30863, "ivably": 40548, "\u0120tether": 41773, "\u0120Corinth": 42035, "encers": 22691, "\u0120mart": 21195, "Young": 22138, "\u0120articles": 7201, "\u0120attitudes": 15764, "\u0120Britons": 24226, "ENG": 25049, "2019": 10626, "ESPN": 31253, "\u0120rectangle": 45140, "\u0116": 50130, "\u0120Pyrrha": 49933, "\u0120Gol": 14494, "\u0120translation": 19850, "\u0120Mouth": 40210, "productive": 32499, "nes": 4977, "Invalid": 49695, "\u0120dele": 32169, "\u0120Jackets": 20272, "pid": 43708, "\u0120diet": 5626, "\u0120spouse": 17117, "future": 21290, "doors": 31618, "YL": 41786, "\u0120WARN": 47612, "geant": 47726, "\u0120CF": 12612, "\u0120motivate": 22962, "\u0120blast": 7814, "\u0120passengers": 3670, "\u0120advance": 3316, "\u0120LED": 10918, "\u0120flip": 11113, "Hillary": 38655, "\u0120Onion": 41638, "\u0120addicts": 26508, "ergic": 44858, "Gameplay": 49796, "Connection": 48467, "388": 34067, "\u0120'/": 48817, "\u012010000": 45563, "arov": 26562, "\u0120favourite": 5548, "\u0120av": 6402, "\u0120Minneapolis": 11435, "\u0120GG": 43934, "\u0120Sie": 17023, "\u0120unintended": 26364, "\u0120summary": 4819, "\u0120Barry": 7600, "ogical": 32481, "gae": 34211, "\u0120fair": 2105, "\u01202017": 193, "\u0120Kickstarter": 29202, "\u0120Vernon": 14571, "\u0120caster": 46882, ")).": 46904, "\u0120brushed": 23637, "\u0120cheer": 9450, "\u0120prescribing": 30724, "Ass": 26039, "thereum": 45507, "\u0120Elise": 32176, "\u0120Fasc": 41815, "\u0120Mart": 5465, "\u0120congressman": 16736, "Disclaimer": 47305, "uri": 6151, "\u0120dangerous": 2702, "\u00e2\u0122\u00a6\u00e2\u0122\u00a6": 35218, "\u0120gradually": 9097, "\u0120Reporting": 22100, "\u0120passing": 3133, "\u0120nominal": 26255, "mind": 28583, "\u0120Typhoon": 33132, "Wait": 36446, "onial": 36072, "gregation": 46607, "\u0120cocktail": 14053, "\u0120gun": 1751, "\u0120Path": 16234, "Wide": 43755, "arently": 45314, "\u0120pawn": 30386, "\u0120420": 26748, "\u0120Married": 30918, "\u0120Sting": 29157, "\u0120integrates": 33752, "ority": 30969, "worm": 33356, "\u0120rede": 35117, "enger": 24290, "\u0120reproduction": 26385, "\u0120Yosh": 24824, "807": 38633, "\u0120woo": 24815, "oni": 5270, "\u0120harvested": 24315, "\u0120Nerd": 39160, "\u0120grun": 39204, "\u0120Authors": 40090, "\u0120Advertisement": 1689, "\u0120Whilst": 29339, "\u0120Sign": 4313, "addock": 39244, "\u0120recollection": 36261, "\u0120....": 39574, "jl": 43720, "\u0120Scala": 44862, "\u0120American": 470, "izen": 26821, "achev": 35397, "\u0120partitions": 46544, "\u0120pan": 5730, "\u0120indebted": 23531, "\u0120Hunger": 27689, "\u0120blinking": 42885, "ostics": 21611, "\u0120Vince": 14453, "\u0120hops": 36269, "\u0120mitochondrial": 43261, "iberal": 45246, "\u0120Elias": 20256, "\u0120cheaply": 34358, "\u0120truce": 23069, "\u0120Flare": 46712, "o\u00c4\u0141": 47914, "\u0120markers": 22462, "\u0120268": 37245, "\u0120Jal": 12656, "\u0120perverse": 41271, "\u0120Trump": 140, "\u0120Libyan": 18087, "\u0120writer": 3331, "article": 31154, "idently": 39964, "ModLoader": 50089, "\u0120browsers": 35855, "Miss": 22885, "\u0120exceeding": 17976, "\u0120o": 1021, "\u0120toward": 1706, "uter": 13080, "\u0120Healthy": 21487, "psy": 23566, "\u0120condemns": 33963, "spir": 36734, "\u0120fry": 25950, "Par": 22011, "Inside": 38359, "acea": 38937, "\u0120Employ": 23564, "atform": 47346, "\u0120Bru": 11831, "\u0120IGF": 47700, "\u0120Charity": 20002, "\u0120academ": 32851, "\u0120Churches": 37391, "\u0120comprom": 40734, "Ward": 41627, "\u0120Benjamin": 7523, "perial": 42383, "\u0120Brick": 23868, "seller": 25577, "\u0120Lose": 38551, "\u0120labor": 4178, "\u0120advancement": 19026, "skin": 33986, "Blake": 40856, "\u01201939": 28234, "\u0120dinners": 23864, "\u0120chop": 27804, "\u0120503": 34531, "few": 37492, "NT": 16966, "\u0120goats": 26622, "\u0120Heather": 10588, "gui": 42299, "Drive": 29279, "\u0120Warner": 6123, "wx": 42357, "eros": 22070, "\u0120Euro": 5122, "\u0120guid": 46783, "\u0120disson": 43162, "allows": 37984, "lasting": 25179, "destroy": 42742, "Nich": 41784, "\u0120periods": 5788, "\u0120highs": 5487, "\u0120upscale": 22563, "\u0120Strateg": 35662, "xe": 42336, "battle": 39836, "pent": 33475, "\u00e3\u0125\u012c": 49689, "SIGN": 42101, "Talk": 27743, "\u0120Ven": 10336, "asper": 45120, "\u00e3\u0125\u0128\u00e3\u0124\u00a3": 49801, "igree": 46673, "Charg": 44932, "\u0120Questions": 18964, "\u0120Spoon": 32534, "\u0120Hare": 33188, "AC": 2562, "idon": 38311, "\u0120Notwithstanding": 42632, "Iron": 38398, "ortmund": 47867, "\u0120bases": 7531, "ema": 8557, "\u0120manipulation": 18110, "ounter": 46014, "Tur": 38110, "illo": 6491, "\u0120scare": 13207, "\u0120Paste": 43387, "ilyn": 45410, "VT": 35707, "\u0120Suicide": 25053, "\u0120mentally": 10072, "\u0120whales": 18018, "\u0120Lip": 15914, "\u0120Moss": 12496, "\u0124\u0130": 49974, "\u0120tattoo": 12904, "eller": 15098, "\u0120fatigue": 16069, "\u0120Providence": 14060, "\u0120sq": 17895, "starter": 37348, "downs": 20650, "fest": 13936, "exist": 34632, "gmail": 14551, "\u0120\u00e2\u0122": 44, "roph": 21130, "\u0120nuances": 33455, "orig": 34188, "446": 33973, "\u012073": 6521, "meric": 30998, "\u0120Manual": 35597, "\u0120discipline": 8882, "\u0120acres": 6419, "\u0120focuses": 7235, "\u0120Environment": 9356, "orf": 16385, "umped": 25844, "\u0120Editorial": 30407, "\\.": 49410, "aths": 31360, "\u0120whim": 31754, "\u0120seeking": 1818, "\u0120gladly": 36811, "Saudi": 28933, "\u0120employment": 4042, "Imp": 30281, "soc": 32460, "\u0120Rica": 17458, "uds": 23082, "\u0120Boards": 36092, "\u0120leans": 36234, "\u0120clashed": 18789, "\u0120Carm": 10636, "\u0120esc": 11363, "Strong": 30558, "\u0120Amar": 19253, "\u0120Hidden": 26234, "phony": 29788, "\u0120robes": 37928, "\u0120obligation": 9061, "\u0120transmissions": 37989, "\u0120stimuli": 42940, "\u0120dean": 19955, "rical": 36057, "\u0120TO": 3842, "\u0120pizza": 9366, "\u0120abdomen": 28398, "1996": 40636, "\u01201979": 12330, "itution": 26013, "\u0120attainment": 38302, "\u0120Communism": 44532, "\u0120jurors": 12588, "Advanced": 44694, "\u0120Highlights": 16794, "\u0120diffusion": 44937, "find": 26559, "ctory": 45271, "\u0120prefix": 46622, "\u0120colorful": 14128, "\u0120Foods": 8465, "Player": 35605, "80": 2940, "\u0120Debor": 46501, "\u0120Folder": 47728, "\u0120Klaus": 29134, "\u0120regulars": 29684, "\u0120liquidity": 7430, "\u0120trapped": 8240, "\u01201956": 24649, "bold": 30508, "squ": 30919, "ocial": 35646, "Fle": 37044, "tons": 38550, "\u0120Dex": 40231, "\u0120Greens": 11876, "bnb": 46276, "uka": 10620, "\u0120battles": 9531, "\u0120Downing": 18123, "\u0120Presidents": 19862, "\u0120rookies": 23711, "\u0120desperation": 24278, "\u0120lament": 25532, "\u0120sleeps": 36831, "dq": 47518, "\u0120Gen": 4380, "\u0120inclination": 36031, "\u0120curv": 42294, "\u0120Pett": 22327, "\u0120fue": 13081, "\u0120aggregate": 13884, "\u0120Beer": 15065, "\u0120recon": 16689, "Copyright": 19538, "\u0120recapt": 24498, "\u0120domains": 30700, "iPhone": 43688, "\u0120unl": 35237, "\u0120stomach": 9377, "\u0120Citizens": 14047, "dor": 32649, "\u0120feet": 1730, "\u0120realizes": 26558, "\u0120Pokemon": 26052, "\u0120stops": 6897, "essel": 28633, "\u0120homegrown": 30102, "ulty": 38431, "\u0120prejudice": 21852, "\u0120Nova": 11617, "\u0120Fresno": 18084, "\u0120Especially": 17570, "\u0120L": 226, "CR": 9822, "\u0120convers": 28726, "\u0120areas": 911, "\u0120rigid": 24577, "\u0120differences": 5550, "\u0120renewal": 14573, "gaard": 25039, "\u0120bod": 28072, "\u0120Aurora": 13311, "\u0120III": 6395, "\u00c3\u0125": 13572, "\u0120medications": 12102, "\u0120H": 289, "\u0120Fleet": 13727, "\u0120Desc": 27705, "\u0120rotate": 28767, "Contract": 43218, "\u0120saving": 6549, "\u0120cd": 45584, "\u0120hallucinations": 42781, "\u0120proletarian": 48715, "\u0120Surv": 37979, "\u0120tactics": 8893, "\u0120earns": 20709, "\u0120astronomers": 30339, "orders": 28436, "IAN": 10296, "\u0120orcs": 48401, "\u0120IM": 9206, "icken": 13552, "\u0120puppet": 29771, "\u0120brightness": 27406, "\u0120metallic": 24117, "\u0120Central": 1505, "\u0120pave": 19175, "\u0120appalling": 26027, "710": 36867, "esi": 20046, "HTML": 48085, "\u0120oppressed": 32881, "ab": 873, "\u0120taxing": 27892, "Abstract": 47638, "\u0120aw": 19267, "\u0120appropriation": 30953, "\u0120germ": 41331, "\u0120Squ": 13840, "rah": 9772, "\u0120Equity": 11462, "\u0120lucrative": 11874, "\u0120indust": 25389, "\u0120flowed": 28601, "\u0120Composite": 12423, "\u0120winners": 4251, "centric": 19483, "\u0120schedules": 15579, "ondon": 24639, "\u0120lol": 29784, "\u0120Rookie": 16509, "plays": 33593, "\u0120Vehicle": 16730, "\u0120equitable": 27083, "\u0120shockingly": 36804, "based": 805, "sure": 41404, "solete": 46153, "\u0120parents": 1041, "\u0120office": 558, "\u0120Marxism": 44760, "\u0120distingu": 48251, "\u0120187": 29373, "\u0120doll": 19495, "pad": 19320, "\u0120aligned": 14485, "\u0120Find": 6449, "etts": 22527, "\u0120DE": 5885, "\u0120corpor": 22997, "\u0120Barrel": 32859, "\u0120Dek": 33519, "\u0120phylogen": 48372, "\u0120SJ": 30850, "\u0120Rai": 20446, "stantial": 31758, "\u0120NYC": 14415, "\u0120Loot": 44632, "438": 37736, "\u0120Needless": 30575, "\u0120Transport": 9000, "ON": 2191, "\u00a9": 15375, "\u0120West": 580, "\u0120Quan": 39828, "\u0120WORK": 32008, "363": 34401, "\u0120analges": 45623, "Story": 39630, "Much": 34443, "\u0120Vas": 12599, "\u0120Cambodia": 16960, "\u0120inverted": 40998, "\u0120affiliate": 10515, "\u0120contempl": 43580, "terrorism": 19151, "\u0120bolstered": 22689, "\u0120Index": 4648, "cz": 10608, "rera": 24736, "\u0120axes": 42694, "Mac": 17049, "second": 10815, "letes": 25773, "\u0120penetrating": 39118, "\u0120furn": 31199, "truth": 36014, "Assembly": 45580, "\u0120Everyone": 7632, "\u0120ass": 8446, "\u0120ext": 8935, "quit": 35508, "545": 36751, "\u0120Wikileaks": 38629, "\u0120problems": 1272, "\u0120devs": 45993, "\u0120endot": 46267, "olid": 30912, "\u0120identifiable": 35432, "\u0120Missions": 43322, "\u0120Blend": 38736, "Sur": 27526, "\u0120Check": 4254, "\u0120reson": 18482, "\u0120inflammation": 16000, "\u0120sunrise": 29518, "\u0120Novel": 36338, "\u0120cyl": 44996, "\u0120ti": 12369, "\u0120kilograms": 23096, "urrence": 30904, "\u0120Al": 726, "technical": 36727, "Design": 34091, "esides": 46463, "phe": 42464, "legged": 28570, "\u0120Dems": 27796, "\u0120opponents": 4257, "herence": 40584, "\u0120225": 15751, "\u0120crop": 6792, "\u0120best": 275, "\u0120Tumblr": 9494, "\u0120228": 27012, "\u0120Bullet": 35894, "\u0120Influence": 41284, "ried": 10382, "Writer": 45489, "\u0120amend": 19338, "\u0120loan": 2541, "\u0120broadly": 11237, "\u0120annoyance": 39341, "\u0120tion": 49011, "down": 3955, "\u0120Dow": 4614, "\u0120supplement": 15981, "\u0120Read": 1163, "\u0120maths": 31955, "\u0120343": 34016, "\u0120owners": 2203, "\u0120candid": 14039, "\u0120greatly": 8908, "az": 1222, "\u0120fright": 32580, "IST": 11595, "\u0120Tap": 14624, "\u0120adjusts": 37371, "\u0120sympathy": 16554, "ressive": 22075, "Future": 37577, "Doctors": 42847, "\u0120residents": 1196, "\u0120shuttle": 19463, "\u0120isol": 32922, "\u0120name": 766, "period": 28030, "\u0120tweet": 3545, "\u0120firmly": 10523, "\u0120celebrities": 8844, "\u0120responders": 11333, "\u0120hur": 23315, "\u0120impressions": 26328, "\u0120accumulate": 29196, "\u0120Cure": 32641, "\u0120dusk": 33917, "oot": 9210, "vest": 13493, "\u0120Trick": 36511, "Correct": 33567, "\u0120affidav": 41119, "\u0120initiative": 3893, "shake": 41820, "pret": 42354, "\u0120Berkeley": 10817, "\u0120Means": 27088, "\u0120Democracy": 17639, "\u0120commentator": 18265, "\u0120frogs": 38072, "iona": 26051, "\u0120Pap": 11846, "\u0120gestation": 42983, "\u0120How": 1336, "\u0120portrays": 29565, "\u0120interventions": 15985, "\u0120parap": 18927, "\u0120descent": 19276, "\u0120LG": 9528, "\u0120builds": 12095, "yson": 20216, "opath": 43671, "IR": 5216, "District": 37998, "meta": 46876, "\u0120Telephone": 32181, "untary": 36710, "\u0120rise": 1430, "\u0120Haiti": 17009, "ruck": 20777, "\u0120dystopian": 36130, "acceptable": 32047, "\u0120importantly": 7769, "\u0120teleportation": 48172, "son": 1478, "\u0120biomedical": 35241, "rarily": 48243, "\u0120earthquake": 8969, "\u0120Lab": 8250, "\u0120tariff": 11091, "\u0120Alger": 28625, "\u0120wins": 2693, "\u0120striped": 29874, "\u0120Boko": 12824, "computer": 36327, "\u0120pics": 18803, "\u0120Syd": 38526, "\u0120shots": 2347, "22": 2036, "\u0120Ion": 32985, "\u0120HP": 13064, "yp": 18198, "\u0120kWh": 42159, "Motor": 39482, "forest": 28236, "\u0120sudo": 41463, "\u0120Jew": 16495, "\u0120Renault": 14833, "_______": 43401, "GUI": 48619, "!\"": 2901, "\u0120strains": 20897, "\u0120bribery": 16854, "312": 29930, "ach": 1488, "\u0120Nigel": 16734, "\u0120folk": 13134, "\u0120parking": 2932, "\u0120Foss": 31432, "\u0120Luxembourg": 21018, "\u0120thigh": 18781, "\u0120sparks": 30555, "ilo": 11313, "\u0120uncomp": 32213, "\u0120Seek": 37528, "\u0120ly": 37653, "\u0120Methods": 42879, "\u0120scored": 1008, "intensive": 28447, "\u0120esteem": 38638, "\u0120Ph": 4129, "\u0120squats": 43014, "wick": 8030, "\u0120attent": 39879, "\u0120Pist": 31743, "274": 30930, "oscope": 31468, "\u0120healed": 32491, "\u0120Moroc": 49356, "\u0120evaluating": 15190, "--------------------": 47655, "\u0120puzzle": 18108, "\u0120Timberwolves": 20165, "ENCE": 13471, "EPA": 29485, "\u0120biology": 18004, "\u0120hampered": 21757, "\u0120intent": 5927, "\u0120verifying": 38088, "]-": 48520, "\u0120encourage": 3803, "\u0120House": 446, "\u0120comfortably": 15995, "\u0120vacation": 7196, "\u0120Griffin": 9192, "\u0120shaken": 17548, "\u0120overd": 21985, "\u00e3\u0122": 48516, "\u00cf\u0126": 47264, "\u0120CA": 5267, "\u0120haunting": 29475, "\u0120Gorsuch": 16524, "\u0120ste": 11235, "\u0120Mercenary": 49219, "avia": 21866, "\u0120disadvant": 48798, "\u0120Fate": 31719, "\u0120Clinic": 14107, "obe": 14004, "umo": 32925, "Similarly": 45400, "pher": 28095, "ivating": 28191, "\u0120Philos": 44310, "esian": 44871, "\u0120Ernest": 16879, "\u0120smell": 11362, "\u0120stemmed": 23494, "\u0120chronic": 7642, "\u0120Bard": 23049, "\u0120evangel": 30651, "\u0120browser": 11407, "ochemistry": 39917, "ARA": 19142, "IV": 6372, "mx": 42385, "\u0120Regional": 4722, "522": 38348, "\u0120constants": 47125, "\u0120Driver": 16870, "\u0120crotch": 42613, "\u00c2\u00af\u00c2\u00af\u00c2\u00af\u00c2\u00af\u00c2\u00af\u00c2\u00af\u00c2\u00af\u00c2\u00af": 50058, "\u0120biom": 43963, "\u0119": 50133, "\u0120brewery": 19628, "\u0120Fashion": 9265, "\u0120swearing": 21854, "According": 14693, "\u0120ridiculous": 10861, "Maria": 38517, "\u0120undead": 44486, "\u0120asteroids": 39873, "\u0120favorable": 9879, "\u0120Eisen": 27413, "\u0120Utility": 27832, "\u0120cowardly": 36881, "\u0120Fine": 14321, "\u0120Ging": 44726, "\u0120}": 35524, "inspired": 13028, "\u0120Safari": 28798, "\u0120Heck": 26171, "Temp": 47971, "\u0120Orlando": 5854, "\u0120prem": 14366, "\u0120Corker": 22072, "\u0120assaulted": 8057, "register": 29662, "Fre": 35673, "\u0120adoptive": 36755, "\u0120Bab": 6753, "Arizona": 36851, "\u0120Everyday": 37158, "\u0120encountering": 37476, "\u0120raiding": 40984, "\u0120Soph": 20188, "\u0120inducing": 41028, "bee": 14650, "\u0120deform": 42011, "\u0120flooding": 5681, "\u0120Depth": 43553, "\u0120Dream": 7419, "\u0120Eld": 18864, "\u0120offending": 26199, "\u0120indefinite": 27495, "\u0120Stain": 44474, "\u013b\u0124": 48985, "StreamerBot": 50202, "\u0120marker": 17540, "usional": 47614, "\u0120Already": 14896, "\u0120Season": 5446, "\u0120ZIP": 41989, "marg": 43037, "neapolis": 46815, "\u0120Obj": 47546, "mund": 34140, "cpp": 49317, "\u0120Parameters": 47930, "\u0120marble": 24920, "\u0120spike": 12490, "\u0120tabletop": 43519, "\u0120Top": 3107, "\u0120Tue": 23776, "\u0120Seasons": 27016, "\u00e6\u0122": 48483, "\u0120explanation": 8257, "\u0120pe": 3723, "\u0120Prepar": 32134, "\u0120ze": 20025, "\u0120aven": 38796, "ascus": 47362, "heon": 37254, "ju": 7488, "\u0120liberate": 38032, "\u0120stunning": 5835, "\u0120recession": 7306, "\u0120Was": 6871, "\u0120slideshow": 13150, "\u0120bankers": 13432, "\u0120Cutting": 30692, "\u0120Wayne": 6098, "\u01201974": 15524, "176": 29431, "\u0120handshake": 31142, "edu": 13452, "\u0120Ether": 35562, "\u0120Corporate": 9299, "\u0120tasks": 8558, "achers": 19040, "\u0120chem": 28033, "\u0120depressive": 40942, "\u0120Logic": 35078, "\u0120sockets": 44433, "\u0120Comey": 5829, "\u0120mummy": 40596, "\u0120acknowledging": 17790, "\u0120legality": 30457, "\u00e3\u0123\u0126": 47780, "CO": 6335, "\u0120grooming": 26925, "token": 46657, "\u0120canal": 21259, "\u0120Acer": 30891, "\u0120ambition": 12831, "\u0120Dragon": 15522, "\u0120adjacent": 12142, "\u0120Browse": 28947, "icial": 23092, "\u0120Demand": 15936, "\u0120ratios": 17885, "ourmet": 23299, "umbers": 30806, "\u0120erupted": 11376, "\u0120outlawed": 30827, "\u0120Messiah": 41547, "lections": 30653, "\u0120Sri": 6604, "\u0120Loss": 19700, "\u0120Pros": 26590, "\u0120solicit": 22706, "zag": 40063, "\u0120Aur": 24368, "\u0120famously": 13455, "hod": 24615, "izations": 18391, "CCC": 29083, "\u0120Wars": 6975, "\u0120sto": 20572, "PM": 5683, "utt": 9259, "\u0120restriction": 20627, "\u0120Door": 21405, "\u0120armour": 37497, "\u0120seniors": 7195, "\u0120borrowing": 9134, "authorized": 42067, "demon": 34084, "\u0120yes": 4420, "\u0120insulation": 27386, "\u0120unjust": 20134, "\u0120HG": 34327, "ization": 1938, "aces": 11667, "\u0120determined": 3030, "ophers": 30482, "\u0120feels": 2653, "MJ": 41062, "\u0120mayors": 23903, "\u0120bastard": 43143, "\u0120indictment": 9645, "\u0120overs": 10981, "\u0120bonding": 27141, "Install": 48218, "\u0120pens": 19394, "\u0120inviting": 13869, "\u0120Vil": 22153, "\u0120operative": 27133, "\u0120Xi": 7030, "nosis": 32444, "vous": 35791, "\u0120CRC": 43444, "ryption": 43781, "\u0120tweets": 6245, "\u0120Starcraft": 48722, "\"></": 49853, "single": 25382, "\u0120Abs": 23709, "\u0120dozens": 4295, "\u01203000": 23513, "ublic": 40171, "\u0120horde": 44666, "\u0120Manga": 45772, "ij": 2161, "mic": 15796, "\u0120Doyle": 17791, "\u0120intervened": 21187, "\u0120reduce": 1888, "\u0120wholes": 24324, "\u0120Tee": 33698, "\u0120ludicrous": 34147, "\u0120decoration": 37364, "\u0120Hello": 20920, "\u0120charts": 12201, "\u0120suprem": 38066, "\u0120Garden": 6081, "abi": 10810, "\u0120misinformation": 23038, "\u0120ETH": 42086, "cil": 17286, "\u0120abusing": 16754, "\u0120Prev": 20878, "linear": 43871, "\u0120Reborn": 47809, "UN": 4154, "\u0120Contract": 15739, "\u0120venture": 5057, "commun": 27217, "\u0120perilous": 33873, "\u0120Mace": 41756, "\u0120accompanying": 14539, "\u0120crater": 30702, "\u0120hit": 478, "\u0120mandate": 7184, "\u0120irresponsible": 21573, "]\"": 44717, "\u0120CM": 10712, "oreAnd": 50090, "\u0120enemy": 8636, "\u0120growers": 17578, "\u0120PC": 4985, "abs": 10155, "again": 23201, "\u0120bite": 10970, "\u0120wal": 21788, "\u0120mul": 22582, "\u0120Past": 11182, "\u0120trustees": 17464, "\u0120Cad": 15307, "\u0120specimens": 36366, "Tra": 24523, "\u0120possessions": 16869, "\u0120Swedish": 9004, "556": 37305, "\u0120Detection": 38091, "arer": 21160, "\u0120verse": 26346, "\u0120executive": 1031, "\u0120airlines": 8537, "\u0120PDT": 9647, "\u0120Gavin": 14522, "\u0120Spend": 34675, "atin": 16779, "\u0120tutorials": 38892, "\u0120layouts": 41993, "\u0120gamma": 42685, "Bah": 43296, "\u0120Bank": 788, "368": 27594, "EXT": 42680, "\u0120Diary": 40097, "\u0120PCIe": 43680, "erness": 44103, "\u0120Valentine": 10539, "\u0120physic": 49041, "cream": 34806, "\u0120Bahrain": 13800, "\u0120Kang": 14796, "\u0120Catholics": 22509, "\u0120pur": 9695, "\u0120Ved": 27194, "ENDED": 44456, "\u0120Doct": 45142, "\u0120frames": 16420, "\u0120grease": 34483, "banks": 27045, "\u0120Esper": 35896, "\u0120throb": 45219, "\u0120Ogre": 48810, "Redditor": 49841, "Unless": 33757, "Ze": 39516, "\u0120lowered": 8206, "JA": 27213, "\u0120af": 9724, "\u0120HA": 27842, "ml": 18517, "\u0120Reyn": 31268, "vill": 21399, "\u0120Qu": 3232, "\u0120Pra": 17644, "out": 995, "\u0120Often": 17482, "50": 1096, "\u0120discounts": 12018, "dep": 17272, "management": 14668, "ipping": 11813, "Trans": 19163, "\u0120preventive": 26290, "\u0120tile": 29939, "\u0120lubric": 31450, "\u0120strength": 2707, "\u00e8\u00a6": 48334, "CLE": 21631, "\u0120Although": 2223, "\u0120bidding": 11754, "\u0120DLC": 36648, "\u0120Chevron": 19406, "\u0120STATS": 39375, "vention": 20874, "\u0120Romantic": 41172, "\u0120Express": 3619, "outhern": 45846, "\u0120budget": 1229, "\u0120wider": 6012, "\u0120blamed": 6102, "\u0120egalitarian": 42890, ")?": 26610, "\u0120charred": 29640, "\u0120Concord": 17994, "\u0120Individual": 22366, "\u0120Why": 2612, "IK": 20458, "\u0120disarm": 27220, "\u012099": 6705, "\u0120teaching": 5307, "alert": 39383, "\u0120Egyptian": 10377, "\u0120pirate": 34687, "isition": 39353, "neutral": 12516, "\u0120kinds": 6134, "ula": 5571, "Attack": 45138, "\u00e2\u0122\u0136\"": 37008, "\u0120barrel": 5484, "\u01208": 290, "gl": 7210, "\u0120Store": 7248, "Of": 10643, "\u0120living": 1207, "\u0120encouraged": 4446, "\u0120evapor": 27805, "\u0120resemble": 25371, "extreme": 34170, "bare": 35219, "\u0120rash": 21563, "iera": 16432, "intend": 24656, "\u0120dispersed": 32807, "pn": 35857, "\u0120Lind": 7596, "uers": 19110, "\u00e3\u0124\u00b0": 49516, "\u0120championed": 24177, "\u0120anti": 1475, "\u0120tiles": 26779, "395": 31330, "\u0120IX": 23698, "esthetic": 38248, "\u00c2\u0142\u00c2\u0142\u00c2\u0142": 50188, "\u0120Alc": 22202, "Never": 22491, "\u0120landscapes": 23525, "\u0120disinformation": 30526, "cester": 27811, "James": 18031, "\u0120Motorola": 23034, "\u0120srfAttach": 50240, "cience": 30836, "\u0120Pretty": 20560, "App": 19186, "\u0120silent": 8454, "\u0120thickness": 31345, "\u0120DOS": 45988, "stasy": 46059, "\u0120LDS": 42804, "nn": 15688, "\u0120WA": 9342, "\u0120pursuing": 8592, "\u01202030": 12060, "\u0120cocktails": 18279, "\u0120learning": 2239, "\u0120700": 7417, "\u0120Senate": 1112, "\u0120slopes": 25098, "\u0120PDF": 22745, "\u0120Emerald": 28652, "aca": 11893, "\u0120oxy": 31926, "\u0120associate": 6754, "step": 13975, "aran": 14119, "NBC": 19542, "\u0120mechanical": 12418, "\u0120fabricated": 27933, "\u0120Illust": 36599, "\u0120flatt": 29857, "\u0120instrument": 10320, "\u0120pieces": 3745, "\u0120sorted": 24713, ".\u00ef\u00bf\u00bd": 35547, "\u0120seeker": 38082, "\u0120whims": 29363, "\u0120mutually": 23196, "HY": 32288, "\u0120Qu\u00c3\u00a9": 32662, "\u0120=====": 47584, "\u0120Div": 12763, "\u0120customize": 30447, "\u0120reliance": 14197, "\u0120Atmospheric": 30120, "\u0120Wer": 21386, "\u0120intimate": 11179, "\u0120Fin": 6513, "\u0120Goldberg": 18835, "per": 1741, "Kyle": 37468, "Bel": 19877, "\u0120bedrooms": 15632, "\u0120pron": 31651, "fill": 29238, "\u0120give": 492, "-,": 20551, "\u0120ticks": 24898, "\u0120allocate": 25915, "ettle": 22286, "146": 27457, "\u0120autobiography": 31511, "\u0120shifted": 9679, "\u0120Gideon": 37975, "Otherwise": 42815, "doctor": 44914, "\u0120joystick": 46135, "\u0120hydro": 13575, "ojure": 49864, "\u0120Aeg": 34519, "Gh": 28916, "\u0120Station": 5088, "\u0120AL": 6019, "432": 37296, "\u0120prestige": 28602, "\u0120disabling": 41625, "\u0120Attack": 23800, "irgin": 41943, "inatory": 42350, "\u0120conf": 7856, "\u0120Be": 1456, "Keys": 44534, "ancies": 27661, "\u0120Scottish": 5411, "akings": 32711, "Loc": 45062, "\u0120convicted": 3828, "\u0120changing": 2992, "enser": 43897, "\u00e6\u012b": 48548, "imation": 39431, "\u0120Savior": 40910, "\u0120storyline": 19879, "\u0120Tata": 14430, "mitted": 13979, "\u0120groin": 20671, "\u0120encomp": 32011, "\u0120Lily": 17990, "raise": 40919, "illon": 18329, "\u0120inequality": 12768, "omach": 44637, "\u0120receipts": 20032, "\u0120features": 1575, "\u0120dont": 33976, "\u0120incorporating": 22690, "repl": 41850, "\u0120Unlike": 8280, "\u0120RV": 18058, "\u0120Lite": 25191, "\u0120Carlson": 15988, "\u0120RF": 18044, "\u0120rapidly": 6042, "\u0120Organization": 6481, "\u0120phosphorus": 41095, "\u0120pamphlet": 43157, "ubis": 47231, "\u0120discriminatory": 22587, "\u0120energies": 34185, "Visit": 45070, "gers": 7188, "\u0120Mut": 13549, "Page": 21823, "mass": 27289, "\u0120Mother": 8133, "\u0120Culture": 11886, "resh": 23053, "\u0120Technique": 46252, "\u0120scan": 14194, "\u0120Anime": 44277, "\u0120Regener": 34514, "Chel": 47735, "\u0120Active": 14818, "\u0120Playoff": 21638, "cha": 7794, "\u0120survivors": 7149, "\u0120Finch": 22171, "\u0120Moff": 24730, "\u0120sl": 3369, "\u0120alliances": 22484, "aaaa": 44172, "\u00e2\u0122\u0135\u00e2\u0122\u0135": 41657, "Environmental": 45311, "\u00e8": 36484, "Tab": 45561, "||": 49085, "\u0120($": 1358, "\u0120gl": 5921, "shown": 44270, "Prosecutors": 44693, "\u0120Hicks": 15105, "\u0120\u00e2\u013e\u0136": 45970, "\u0120juvenile": 13430, "\u0120mastery": 37137, "\u0120Hew": 16251, "\u0120implementing": 9704, "speed": 8619, "\u0120Amazing": 24361, "\u0120orchestra": 20642, "\u0120called": 373, "\u0120Rich": 6341, "\u0120Richmond": 7851, "\u0120SNP": 20472, "image": 20094, "\u0120tot": 11563, "\u0120Articles": 15219, "\u0120insensitive": 29401, "\u0120Plug": 35079, "\u0120ire": 25509, "\u0120guarant": 33148, "mable": 35128, "\u0120proble": 35006, "achy": 35600, "\u0120opp": 27906, "\u0120Comcast": 15108, "\u0120securely": 31328, "\u0120St": 312, "\u0120stick": 4757, "style": 5827, "\u0120Dep": 6748, "\u0120elaborate": 10986, "\u0120scal": 27949, "\u0120580": 34240, "\u0120spitting": 35304, "\u0120Perl": 35939, "THIS": 39648, "\u0120deity": 42811, "Kick": 44545, "\u0120Crus": 24510, "\u0120phenomen": 44941, "Points": 46340, "while": 20235, "\u0120purportedly": 28064, "\u0120receptions": 15468, "\u0120Sunset": 23263, "pages": 40347, "\u0120stri": 28213, "\u0120reuse": 32344, "\u0120volunt": 43763, "Hub": 23730, "\u0120Wraith": 47294, "pec": 26512, "\u0120Stru": 31885, "\u0120tacos": 29965, "\u0120circling": 33633, "\u0120Destination": 37166, "leg": 4308, "urring": 16715, "\u0120Urban": 8595, "olicited": 33358, "\u0120Ga": 10160, "\u0120regarded": 11394, "\u0120Pok\u00c3\u00a9": 46697, "lopp": 47338, "\u0120dilig": 49155, "\u0120board": 792, "oit": 21058, "dragon": 46933, "Congress": 25997, "\u0120majesty": 44446, "\u0120Gim": 31280, "\u0120unm": 30780, "\u0120edit": 17668, "\u0120questionnaire": 31067, "\u0120crabs": 37669, "yahoo": 32874, "\u0120ashes": 24936, "\u0120as": 25, "recy": 43099, "Foot": 43244, "odan": 44892, "\u0120Mega": 19604, "\u0120Kell": 12702, "\u0120Tues": 20423, "Tree": 33731, "\u0120Device": 29305, "\u0120Hab": 16128, "\u0120sinking": 19191, "\u0120March": 494, "\u0120Specialist": 26159, "\u0120mamm": 32751, "\u0120Word": 15690, "\u0120Boulder": 18874, "IOR": 31259, "\u0127": 5782, "\u0120hype": 14761, "\u0120Puerto": 5821, "\u0120Ap": 8712, "\u0120crumbling": 27588, "\u0120shrew": 36943, "\u0120prest": 37915, "\u0120headed": 3475, "ibu": 16343, "\u0120ritual": 19100, "689": 38349, "Together": 32998, "blems": 42216, "\u00c3": 3849, "\u0120spectacular": 8694, "\u0120Templar": 47126, "\u0120embassy": 8885, "\u0120arenas": 33322, "\u0120distinguishes": 42877, "rather": 37615, "\u0120moderates": 32519, "weed": 35824, "ains": 5069, "\u0120Spears": 25888, "ussy": 28102, "\u0120hep": 45441, "\u0120Kurdistan": 22953, "\u0120Roberto": 13647, "\u0120legally": 7818, "\u0120exemptions": 20712, "O": 673, "\u0120property": 1038, "POL": 38807, "\u0120gymn": 16246, "coord": 39219, "erton": 14347, "DL": 26109, "evin": 36937, "\u0120UNCLASSIFIED": 49924, "\u0120teams": 893, "\u0120payment": 3207, "\u0120Marks": 19793, "\u0120Shades": 31030, "\u0120timeout": 25386, "\u0120Sex": 15516, "eri": 16367, "hani": 36424, "\u0120icing": 30188, "WORK": 45213, "\u0120Components": 39320, "lication": 48020, "\u0120differential": 25406, "\u0120fracturing": 34905, "\u0120sap": 34908, "\u0120deleted": 13908, "\u0120Ac": 6208, "\u0120Impossible": 31324, "584": 38601, "\u0120dimin": 29063, "\u0120hooked": 18954, "\u0120programme": 3020, "\u0120pope": 16627, "chairs": 27714, "\u0120scalp": 30966, "Democratic": 38729, "EGIN": 39764, "\u0120Double": 12617, "chan": 14717, "\u0120thread": 15019, "\u0120mayoral": 24629, "\u0120compared": 1118, "830": 35781, "\u0120outcome": 4258, "the": 627, "\u0120votes": 2834, "\u0120volunteers": 4618, "ances": 5332, "\u0120digs": 18037, "\u0120adventure": 9733, "\u0120Scarborough": 21367, "\u0120donkey": 38822, "\u0120implementation": 5574, "\u0120weekends": 12729, "\u0120discarded": 24706, "\u0120sugars": 34625, "urances": 40406, "escent": 42473, "\u0120anxiety": 6882, "legram": 34766, "\u0120banner": 12773, "\u0120Tempest": 44939, "\u0120License": 28515, "\u0120droid": 46235, "associated": 38838, "\u0120Tanz": 46415, "\u0120Ian": 5965, "\u0120innovation": 4695, "\u0120Metal": 14733, "\u0120oxide": 30629, "\u0120grizz": 32003, "\u0120semifinals": 12477, "\u0120teaspoon": 21161, "\u0120Newt": 36997, "\u0120supply": 1787, "\u0120falling": 3064, "alde": 37331, "\u0120Sz": 15837, "Bomb": 42984, "\u0120prayed": 21619, "Submit": 47834, "axter": 45819, ")=": 49143, "\u0120safegu": 28531, "anon": 38230, "\u0120Yuri": 35944, "Pict": 40928, "\u0120cryptoc": 48478, "\u0120enforce": 10914, "tick": 41791, "\u0120Mn": 7639, "\u0120plant": 2195, "\u0120Hib": 22842, "\u0120TOTAL": 36575, "fen": 22132, "reports": 13685, "Happy": 21136, "\u0120Schwe": 22958, "sche": 25383, "\u0120EntityItem": 50257, "\u0120personalized": 17159, "\u0120Kob": 18131, "\u0120atrocities": 21692, "\u0120shepherd": 35234, "\u0120easing": 8673, "\u0120Pi": 13513, "shire": 9959, "\u0120bullets": 14006, "\u0120fame": 9444, "hm": 13492, "\u0120Assange": 18705, "\u0120sliced": 21406, "\u0120plotting": 22849, "\u0120Equality": 27943, "\u0120minimizing": 34655, "Until": 22392, "anic": 26728, "\u0120warmed": 28163, "University": 29972, "\u0120caves": 33962, "\u0120terrible": 6587, "\u0120Chapman": 14017, "\u0120Layout": 46578, "\u0120NRS": 47135, "\u0120artific": 48252, "\u0120retali": 18570, "\u0120Crypto": 27159, "annon": 17375, "\u0120Giant": 21606, "\u0120frown": 41588, "\u0120pans": 31592, "\u0120Warranty": 45351, "vP": 47373, "\u0120Interpret": 43380, "\u0120grid": 7961, "\u0120Brazil": 2910, "\u0120mailbox": 36661, "\u0120Sets": 41385, "upuncture": 46693, "========": 48273, "\u0127\u012d": 49897, "\u0120Schumer": 10783, "\u0120speculation": 6116, "vez": 20782, "\u0120swall": 45964, "raising": 21973, "Sac": 39429, "\u0120overcrowd": 22002, "\u0120make": 146, "\u0120massage": 19732, "\u0120clashes": 10165, "\u0120\u00ce\u00b2": 47743, "itles": 46913, "\u0120spraying": 30652, "\u0120cancellation": 16064, "\u0120Werewolf": 48388, "ta": 4349, "\u0120referen": 48655, "\u0120patch": 9202, "rive": 25824, "/*": 49051, "\u012016": 545, "\u0120regex": 49466, "\u0120Humans": 35424, "\u0120nursery": 24121, "\u0120refined": 15616, "\u0120Dual": 23722, "director": 19709, "\u0120swoop": 26862, "\u0120knots": 31792, "\u0120Arche": 45640, "\u0120Adren": 40705, "html": 6660, "bot": 12749, "head": 3628, "\u0120suspic": 48864, "\u0120sitting": 2828, "\u0120inmates": 8039, "\u0120discretionary": 25159, "772": 38949, "DVD": 44861, "\u0120collection": 2783, "\u0120364": 38930, "+=": 49419, "\u0120appeared": 1382, "drm": 49167, "\u0120pasture": 34981, "\u0120switch": 5405, "\u0120installation": 8809, "\u0120Category": 11995, "\u0120nutrients": 20012, "\u0120Administ": 29781, "\u0120ASUS": 43454, "\u0120cautioned": 13335, "\u0120achieved": 4824, "tern": 18995, "cube": 32788, "\u0120embry": 48223, "\u0120burning": 6574, "\u0120fabric": 10199, "\u0120Inv": 9318, "\u0120wear": 3568, "\u0120calibr": 43460, "asi": 8209, "349": 27758, "\u0120WH": 12707, "\u0120observe": 14095, "\u0120Admission": 18032, "itals": 19196, "appropri": 31374, "raph": 33518, "ordering": 43976, "\u0120Kepler": 31557, "\u0120IGN": 38171, "aintain": 37205, "\u0120proposal": 2570, "iat": 11284, "\u0120deep": 1844, "wark": 37232, "Recipe": 48750, "\u0120IQ": 23003, "\u0120What": 653, "\u0120terror": 5231, "\u0120Accept": 29081, "\u0120\u00e2\u0138\u00ba": 26074, "\");": 45751, "import": 41975, "\u0140": 17772, "\u0120Cater": 20322, "Scient": 46300, "aterial": 36270, "fect": 17706, "\u0120Kiw": 21472, "\u0120blocked": 4953, "annel": 28189, "imm": 13255, "agh": 7669, "\u0120fallacy": 44469, "\u0120Clothing": 36221, "\u0120persecuted": 33338, "awn": 11716, "\u0120pumpkin": 20571, "\u0120nib": 38568, "\u0120\u00c3\u00a9": 7935, "\u0120incarcerated": 24593, "\u0120resolution": 3547, "\u0120carving": 29776, "\u0120Levy": 20051, "\u0120Is": 1534, "\u0120Ange": 29199, "independent": 32982, "OPER": 35918, "\u0120manufact": 48361, "\u0120Fitz": 21872, "ails": 11791, "\u0120bombings": 19918, "epad": 45922, "\u0120themes": 12049, "cca": 17782, "444": 29903, "Associated": 17044, "\u0120liberated": 30243, "omb": 5223, "\u0120Lakers": 6772, "paying": 21579, "\u0120worry": 4022, "igious": 36872, "Related": 22816, "\u0120ATK": 40831, "idav": 46121, "Southern": 35984, "\u0120empty": 5802, "ordinary": 28532, "lets": 10219, "\u0120broker": 8122, "activity": 30280, "\u0120Rece": 27098, "\u0120prudent": 22652, "olan": 13887, "\u0120Clim": 35601, "FC": 5268, "\u0120backyard": 12284, "\u0120Chain": 18610, "\u0120grazing": 26881, "png": 40233, "\u0120job": 633, "coe": 25595, "rams": 27809, "\u0120Generation": 17362, "\u00c4\u0141": 26828, "\u0120Evil": 26780, "\u0120fec": 42085, "\u0120princes": 39978, "itton": 23121, "Alt": 41622, "seed": 28067, "\u0120retired": 3562, "\u0120PVC": 33061, "\u0120conform": 18627, "autions": 47138, "hub": 31002, "\u0120Memphis": 7995, "\u0120sheriff": 5742, "\u0120boots": 10317, "\u0120Fellow": 16728, "\u0120BC": 9543, "\u0120moist": 34257, "\u0120Showdown": 41898, "\u0120Coming": 12540, "Results": 41981, "Leaks": 43352, "\u0120Roof": 19409, "r\u00c3\u00a9": 20287, "akable": 30363, "\u0120directory": 31826, "\u0120grandfather": 10642, "\u0120Mirage": 39368, "\u0120Gentleman": 43252, "oreal": 43434, "\u0120endif": 49997, "\u0120kindergarten": 19610, "\u0120progressed": 18467, "becca": 39746, "\u0120boosts": 25941, "\u0120narrated": 29601, "\u0120Econom": 17833, "\u0120asphalt": 28280, "\u0120cheapest": 21084, "\u0120sizeable": 25965, "alties": 31438, "\u0120wrestlers": 25078, "\u0120stagn": 32522, "\u0120ancestry": 33209, "cled": 34585, "reporting": 37285, "\u0120may": 189, "\u0120inequalities": 36667, "\u0120Jake": 6469, "incinn": 48409, "LIB": 46690, "Hero": 43483, "NA": 4444, "\u0120correlates": 44555, "\u0120Nora": 31801, "gru": 34497, "\u0120DDR": 37159, "\u0120Autumn": 26869, "otyp": 43938, "Nar": 45787, "formation": 26941, "ind": 2028, "\u0120shouldn": 4395, "ateur": 33102, "\u0120hij": 16195, "Cro": 36537, "\u0120Benefit": 28474, "417": 36711, "\u0120construct": 12558, "\u0120Colonel": 21253, "\u0120capt": 13363, "wired": 23963, "ossession": 38030, "Bas": 40258, "\u0120stamps": 22957, "\u0120lamp": 24272, "\u0120cerv": 44284, "\u0120accordance": 10753, "\u0120rushes": 33617, "iana": 8878, "\u0120gou": 34348, "\u0120leveraging": 21221, "ActionCode": 50177, "gression": 42223, "\u0120Fake": 24530, "ts": 1872, "\u0120Scholars": 31591, "rians": 36321, "\u0120cur": 5350, "\u0120outfielder": 17937, "alities": 29356, "\u0120purposely": 34197, "ora": 4330, "313": 32827, "maybe": 31501, "\u0120synth": 38668, "\u0120Danielle": 15156, "778": 35534, "\u0120Commons": 10271, "\u0120domination": 27838, "\u0120mL": 38762, "\u0120legislator": 23351, "\u0120boost": 2501, "\u0120guided": 10346, "\u0120Viv": 12701, "verson": 28980, "\u0120panicked": 28604, "strip": 34216, "Group": 25976, "\u0120squid": 40619, "rod": 10774, "\u0120equation": 19587, "\u0120snail": 40961, "\u0120Geh": 35452, "\u0120fielded": 24912, "643": 37853, "\u0120collagen": 39248, "itzer": 19903, "\u0120Payton": 21935, "CVE": 45778, "HOME": 47104, "\u0120psychopath": 39775, "\u0120diameter": 26089, "\u0120https": 1205, "agate": 32814, "\u0120inquire": 36124, "ceivable": 39867, "ijuana": 25491, "\u0120char": 16224, "\u0120Init": 47023, "\u0120oldest": 7763, "\u0120voter": 6679, "essen": 24439, "\u0120Mak": 8958, "\u0120SOS": 36363, "Em": 16750, "\u0120Integ": 29257, "rington": 12344, "\u0120generals": 25363, "\u0120endeavour": 32592, "\u0120honour": 6671, "\u0120entertain": 12043, "\u0120Course": 15210, "drive": 19306, "\u0120galaxy": 22703, "matched": 38331, "\u0120pict": 40123, "\u0120vacations": 28177, "bending": 43061, "\u0120Sahara": 26446, "\u0120whist": 25637, "\u0120organizational": 20973, "tell": 26316, "\u0120Darius": 28489, "\u0120fluffy": 33564, "\u0120NBN": 37738, "\u0120squirrel": 29629, "db": 33845, "\u0120Zealand": 3324, "\u0120proceeded": 18254, "thin": 31507, "\u0120sixty": 33910, "\u0120AoE": 49715, "bag": 14118, "\u0120uncommon": 18186, "\u0120chromos": 47411, "\u0120distortion": 36075, "\u0120postings": 32378, "\u0120needed": 956, "monitor": 38575, "numbered": 45017, "\u0120Mt": 11319, "erella": 45414, "\u0120ya": 13531, "\u0120Up": 3105, "\u0120realized": 5426, "\u0120screens": 8545, "Brexit": 16636, "\u0120horror": 8444, "\u0120disciplines": 24148, "\u0120Underground": 24883, "\u0120ideally": 25969, "\u0120COUR": 45247, "\u0120lowest": 3912, "\u0120became": 1059, "\u0120advancing": 11511, "\u0120predator": 25293, "\u0120BW": 37170, "Thirty": 38011, "\u0120Society": 3930, "\u0120courts": 4354, "board": 4929, "\u0120reluctant": 11923, "\u0120brawl": 23928, "\u0120Nursing": 24172, "\u0120soar": 27283, "\u0120brand": 1518, "christ": 27790, "\u0120Writers": 23149, "\u0120abandonment": 34465, "\u0120Rack": 34767, "yards": 17230, "inosaur": 47943, "related": 3368, "42": 3714, "De": 13365, "\u0120Celtics": 8734, "\u0120friends": 964, "\u0120salesman": 32656, "\u0120crunch": 14291, "\u0120risk": 810, "\u0120Nintendo": 10396, "\u0120defines": 19857, "\u0120Getty": 4080, "\u0120Tyler": 5599, "\u0120cont": 8541, "orm": 8693, "iley": 9422, "\u0120supplier": 9509, "KO": 21738, "\u0120pil": 25172, "\u0120Values": 38380, "\u00e3\u0125\u0131": 49732, "\u0120synerg": 21501, "\u0120printf": 49558, "048": 40976, "uates": 24597, "\u0120drastically": 17811, "\u0120gardening": 23230, "\u0120creatively": 34208, "Kate": 34079, "\u0120Destruction": 43207, "\u0120Keynes": 33897, "iced": 12646, "\u0120unrecogn": 35152, "\u0120NEW": 5178, "KING": 22889, "\u0120interstellar": 43240, "\u0120Int": 7299, "structed": 28354, "\u0120Loud": 27858, "SN": 12436, "\u0120temper": 18586, "\u0120footh": 33600, "agged": 11290, "\u0120FY": 9878, "\u0120mythology": 33875, "\u0120Incarnation": 48616, "fed": 21967, "\u0120doors": 4259, "\u0120investigating": 3219, "\u0120football": 1037, "\u0120Boeing": 6722, "\u0120SU": 9557, "\u0120labelled": 22434, "\u0120Iw": 28579, "\u0120Grim": 29940, "formerly": 30520, "agher": 33637, "bird": 15886, "651": 39060, "\u0120bondage": 42330, "\u0120GABA": 47644, "\u00e3\u0125\u0132": 49441, "\u00e3\u0124\u00a8\u00e3\u0125\u00ab": 50038, "Org": 46532, "\u0120Conversion": 43615, "::::::::": 46564, "\u0120lump": 19666, "zel": 10101, "\u0120electoral": 7169, "eed": 10247, "\u0120ardu": 34602, "\u0120refin": 20361, "Fit": 30124, "imensional": 30846, "\u0120lag": 16396, "\u0120muse": 38377, "\u0120Text": 14159, "asket": 20997, "kish": 24954, "\u0120Supply": 13612, "Link": 17860, "ando": 5502, "\u0120equivalents": 26699, "\u0120agg": 28940, "umbing": 32164, "\u0120marvel": 25591, "\u0120Yan": 21114, "wrap": 45705, "thing": 13247, "hw": 30826, "\u0120twisting": 35492, "didn": 31934, "un": 879, "While": 5771, "\u0120Hurricanes": 13697, "\u0120obstacle": 17610, "\u0120ceremonial": 24431, "\u0120gloomy": 32627, "Cash": 32987, "\u0120excuses": 19791, "\u0120wasting": 21025, "\u0120capitalism": 21314, "\u0120Walter": 10378, "\u0120Hutch": 20854, "oki": 28439, "DES": 40429, "\u0120likeness": 33699, "Meet": 30682, "\u0120redes": 42313, "CHECK": 48692, "default": 43234, "PR": 4454, "][": 46386, "\u0120Korea": 1101, "\u0120mosa": 45811, "\u0120Soci": 35160, "WER": 45117, "\u0120imperfect": 27676, "\u0120professions": 32015, "\u0120normative": 46165, "Nat": 40676, "\u0120vibrations": 39074, "\u0120handwriting": 39615, "\u0120Salvador": 14254, "\u0120Salam": 35020, "boro": 9195, "Cod": 47436, "\u0120Jones": 1454, "\u0120interception": 11949, "\u0120Claus": 21010, "igrate": 38476, "\u0120THANK": 42787, "DIR": 47992, "\u0120conducts": 21616, "\u0120Im": 5902, "\u0120colleg": 40131, "\u00e2\u0122\u00a6\u00e2\u0122\u00a6\u00e2\u0122\u00a6\u00e2\u0122\u00a6\u00e2\u0122\u00a6\u00e2\u0122\u00a6\u00e2\u0122\u00a6\u00e2\u0122\u00a6": 46126, "\u0120messing": 35204, "\u0120passwords": 20616, "\u0120256": 22078, "\u0120those": 167, "\u0120CAT": 32295, "\u0120termin": 19022, "\u0120destinations": 11633, "\u0120repud": 39532, "\u0120Lisp": 49240, "\u0120memory": 3783, "iqueness": 49005, "\u0120Boh": 24620, "\u0120contrasting": 31003, "archives": 45974, "Supp": 33661, "apolog": 30961, "obos": 40665, "\u0120intercept": 20359, "\u0120Kes": 18987, "\u0120permissions": 33740, "\u0120Joined": 38412, "74": 5243, "\u0120nas": 23473, "\u0120becomes": 3374, "\u0120Orn": 41859, "rone": 22253, "Rocket": 42913, "\u0120Volunte": 46585, "&&": 49145, "ww": 33130, "offs": 10816, "ause": 17498, "hma": 36050, "\u0120``": 45518, "called": 4155, "\u0120causes": 4685, "\u0120convert": 10304, "legates": 34220, "\u0120pious": 44843, "tted": 32368, "\u0120Bus": 6926, "bags": 19090, "\u0120halves": 30819, "hene": 29089, "Lat": 41933, "\u0120gem": 15538, "\u0120paralyzed": 28582, "\u0120PLEASE": 33423, "remove": 46327, "\u0120corporate": 2365, "\u0120hom": 9486, "\u0120tribunal": 16361, "\u01201962": 19515, "\u0120canvas": 20790, "910": 36991, "\u0120vas": 37345, "\u0120JPEG": 45258, "data": 23687, "\u0120enlarge": 22368, "mol": 37145, "px": 38740, "\u0120brittle": 40818, "\u0120escape": 5111, "\u0120stealing": 9460, "Mal": 18764, "minist": 38466, "\u0120fisheries": 25173, "json": 40962, "\u0120Ascend": 42459, "\u0120Unicode": 46483, "mer": 2089, "rollers": 34202, "ARDIS": 47508, "WithNo": 49840, "\u0120Commerce": 5669, "\u0120academy": 11756, "pless": 16979, "sers": 48756, "\u0120figure": 1955, "\u0120theory": 6680, "\u0120communicating": 17957, "\u0120keyword": 36585, "acious": 15525, "rogram": 42189, "\u0120hurled": 30813, "\u0120accounting": 6846, "\u0120arise": 16072, "\u0120Wi": 9276, "reement": 43563, "\u0120Starfleet": 47877, "imately": 44900, "\u0120bras": 34904, "\u0120El": 1448, "\u0120500": 1764, "req": 47278, "\u0120slipped": 7185, "\u01202011": 1466, "81": 6668, "\u0120protocol": 11883, "\u0120Dispatch": 29517, "452": 36720, "ook": 6576, "\u0120pra": 21950, "\u0120wire": 8869, "wing": 5577, "Show": 27477, "\u0120tee": 13454, "\u0120Milton": 16612, "atches": 24700, "eways": 33276, "\u0120Correction": 35648, "\u0120Queensland": 7088, "\u0120Braves": 13376, "umes": 19364, "\u0120Bake": 24138, "\u0120herpes": 42163, "iazep": 44589, "\u0120assumes": 20573, "\u0120Rh": 8778, "\u0120Watkins": 17740, "\u0120Verizon": 10422, "Count": 23329, "box": 8304, "\u0120Iraq": 3345, "\u0120Background": 32070, "\u0120dom": 13567, "277": 31262, "364": 34639, "\u0120Natalie": 14523, "antry": 36747, "\u0120vul": 42643, "POS": 42740, "\u0120IoT": 13044, "\u0120Cornell": 15634, "Enjoy": 44049, "erenn": 45904, "\u0120perpendicular": 46039, "\u0120derives": 38618, "\u0120arbitrarily": 40165, "rying": 15975, ")-": 19281, "UCT": 28120, "\u0120\u00c3\u0138": 30492, "\u0120sweeps": 34752, "quite": 24638, "\u0120Sad": 10738, "\u0139": 6800, "\u0120flawless": 25257, "bris": 39927, "irled": 35413, "mbol": 43891, "\u0120rebell": 45874, "Fourth": 46354, "\u00e1\u00bd": 49640, "\u0120uneven": 25169, "\u0120blockchain": 10607, "\u0120Lad": 17804, "\u0120Page": 7086, "\u0120January": 644, "\u0120excruciating": 36021, "116": 22418, "between": 25784, "\u0120monitoring": 4872, "\u0120MAG": 29505, "open": 12592, "\u0120Marvin": 18669, "\u0120warrants": 11958, "\u0120woodland": 35773, "\u0120videos": 3424, "342": 33192, "\u0120mom": 3795, "\u0120Mickey": 20210, "yout": 49297, "\u0120litter": 18473, "\u0120obesity": 14057, "\u0120raided": 18000, "\u0120Associates": 11823, "\u0120cinnamon": 27053, "ppel": 30165, "\u0120Marco": 10425, "\u0120rattled": 21602, "Force": 36832, "\u0120surgeons": 25705, "Walk": 33150, "Tri": 35587, "\u0120Funding": 21859, "olkien": 49592, "\u0120breaking": 3433, "\u0120filming": 9293, "orama": 29762, "565": 37402, "Original": 42949, "\u0120replicate": 19795, "aii": 36729, "26": 2481, "\u0120sexism": 26032, "camp": 21669, "\u0120swath": 31281, "\u0120retracted": 40486, "\u0120KDE": 46418, "\u0120Appropri": 39960, "\u0120allocations": 28823, "\u0120royal": 5754, "\u0120Sto": 23888, "\u0120Default": 35364, "\u0120judging": 17298, "\u0120gravity": 17244, "\u0120Ping": 27161, "\u0120bachelor": 16781, "\u0120sees": 3681, "\u0120despise": 43255, "\u0120generalized": 44030, "66666666": 50036, "reon": 45143, "618": 33225, "uti": 18078, "GBT": 47872, "Ancient": 48011, "\u0120Ensure": 38141, "\u0120nearby": 3027, "\u0120achievements": 9270, "concert": 34420, "edy": 14425, "\u0120robots": 12129, "\u0120donated": 6652, "produced": 25617, "\u0120INV": 18638, "\u0120und": 2432, "TP": 15993, "\u0120judged": 16247, "appointed": 19051, "GH": 17201, "\u0120NAACP": 23557, "\u0120cultivated": 30668, "event": 21680, "parents": 34846, "\u0120fascists": 43718, "\u0120Heist": 46433, "\u0120ants": 32855, "shr": 42098, "\u0120ml": 36769, "\u0120celebration": 4821, "\u0120rabbit": 26666, "\u0120pertaining": 21227, "\u0120Educ": 25823, "absolutely": 24002, "ija": 12733, "establish": 30248, "\u0120Borders": 23987, "\u0120clauses": 30756, "MM": 16261, "\u0120Das": 9938, "til": 31387, "\u0120Idlib": 20326, "Arsenal": 31661, "\u0120Battalion": 26592, "\u0120scoff": 34564, "acas": 19533, "annels": 34735, "\u0120theorists": 39726, "\u0120Pharmac": 43855, "\u0120rearr": 37060, "ANI": 18009, "\u0120Perception": 45679, "\u0120mildly": 33019, "Brave": 46045, "haw": 11900, "\u0120emit": 29901, "Ts": 38516, "\u0120Appeals": 13248, "\u0120touching": 10238, "\u0120finest": 14535, "\u0120Sig": 17427, "\u0120Alexand": 21441, "ators": 3629, "ounded": 9968, "\u0120caf\u00c3\u00a9": 26059, "omon": 28344, "Had": 32054, "opus": 33259, "Materials": 48495, "\u0120REAL": 30323, "Stay": 34112, "\u0120Au": 14870, "\u0120engaged": 4009, "\u0120Schn": 21331, "\u0120contract": 1355, "\u0120128": 13950, "rase": 34338, "Lim": 44222, "\u0120Gallagher": 15397, "oxy": 25456, "\u0120DAV": 27114, "\u0120Dough": 30824, "\u0120Texas": 1184, "\u0120specialize": 34937, "\u0120ACC": 10018, "\u0120annexed": 33606, "\u0120they": 51, "\u0120mechanics": 20234, "\u0120134": 23006, "\u0120adhere": 20696, "\u0120option": 1973, "Pa": 28058, "\u0120Dra": 22038, "\u0120LD": 34744, "\u0120eluc": 44961, "\u0120TTL": 48890, "\u0120pond": 13362, "\u0120digital": 1778, "esity": 46461, "Character": 48116, "\u0120///": 48289, "sburgh": 39710, "\u0120kidneys": 33473, "\u00d6": 46030, "ation": 1258, "oph": 6673, "%).": 23528, "\u0120Uber": 4519, "\u0120religions": 24664, "\u0120mould": 27421, "\u0120KB": 29006, "476": 33981, "\u0120premier": 7355, "ATT": 26107, "\u0120stopp": 16133, "39": 3416, "\u0120opposed": 4340, "\u0120Veterans": 8815, "\u0120contacting": 20896, "\u0120crept": 34958, "\u0120tunnel": 10615, "inic": 35159, "\u0120embraces": 28978, "\u0120WARNING": 16774, "\u0120Sett": 35082, "TH": 3732, "\u0120ripe": 23318, "\u0120crowd": 2180, "chie": 17309, "\u0120PRO": 23093, "\u0120Mitt": 16272, "gado": 25880, "\u0120Instruments": 27498, "announced": 29096, "\u0120Hug": 30581, "\u0120exposures": 31548, "ignant": 35090, "\u0120capit": 31567, "\u0120flavour": 24253, "Dou": 39756, "fter": 23782, "\u0120appraisal": 31837, "orry": 17649, "\u0120Opposition": 11112, "hiba": 20575, "\u0120Straw": 37781, "ifice": 39748, "ustainable": 40315, "\u0120provisional": 21571, "\u0120evidently": 32156, "Kin": 42638, "piration": 41678, "782": 40092, "Skill": 47937, "\u0120approved": 2033, "\u0120Bullets": 40607, "AAAAAAAA": 48983, "\u0120theft": 5751, "\u0120Barbar": 40482, ",\u00e2\u0122\u0136": 49058, "\u0120Tu": 9688, "\u0120swast": 36656, "\u0120benefiting": 17562, "\u0120bi": 4003, "hl": 11639, "suggest": 42353, "\u0120Escape": 29872, "\u0120store": 1400, "Mesh": 47775, "ronics": 23016, "ASON": 31705, "\u0120turret": 45702, "ione": 8525, "\u0120Omar": 11482, "\u0120Pred": 24268, "north": 25407, "\u0120taller": 26647, "\u0120counterterrorism": 29756, "\u0120goddamn": 45003, "ependent": 48066, "\u0120Apprentice": 28790, "ivism": 33607, "\u0120Canberra": 16773, "Desc": 47066, "\u0120athe": 44709, "\u0120den": 3069, "\u0120domin": 39124, "\u0120Bub": 22276, "Compar": 48080, "\u0120Marshall": 6758, "\u0120EC": 11270, "\u0120Blvd": 12543, "\u0120stat": 12377, "OND": 7054, "\u0120Operator": 7854, "\u0120Lithuan": 39714, "itsu": 27315, "\u0120Spart": 30140, "utical": 46803, "9999": 46847, "\u0120Wealth": 12262, "\u0120Second": 4665, "\u0120Koz": 28157, "\u0120com": 3137, "\u0120Ukraine": 4174, "sha": 25410, "international": 30877, "ilingual": 41586, "\u0120complained": 7311, "ogl": 25326, "012": 37524, "\u0120Skin": 21814, "\u0120cautious": 9420, "\u0120Gorge": 31407, "!,": 28114, "\u0120Recall": 35109, "erman": 7043, "\u0120affection": 15955, "\u0120proxy": 16453, "essential": 23693, "\u0120vehemently": 26981, "PS": 3888, "protected": 37659, "\u0120Brus": 38941, "sson": 7815, "\u0120alum": 19206, "normal": 21113, "posts": 30927, "\u0120Nicol": 24947, "\u0120Beat": 10841, "\u0120gather": 7365, "\u0120Devils": 9155, "\u0120goods": 3057, "\u0120warranted": 24939, "\u0120training": 1058, "wake": 40731, "\u0120organisations": 7260, "\u0120URL": 33000, "tap": 34607, "\u0120transmitter": 42055, "\u0120Zerg": 49480, "\u0120\u00c3\u012b": 24986, "\u0120consumed": 13056, "igans": 40342, "\u0120Wolverine": 34594, "\u0120Loans": 26935, "\u0120residues": 44701, "\u0120includes": 1171, "\u0120Mir": 6512, "oust": 17778, "\u00e2\u0122\u0130": 30902, "\u0120\u00c2\u00a7": 39207, "\u0120wielded": 40777, "\u0120Learned": 44178, "padding": 48921, "\u0120pestic": 49383, "\u0120Kris": 11233, "\u0120grape": 24410, "aa": 6621, "124": 22960, "NG": 5054, "\u0120scientifically": 36388, "ager": 6988, "\u0120freel": 30270, "\u0120inciting": 30752, "681": 38149, "\u0120wa": 13332, "\u0120114": 15900, "\u0120leukemia": 28837, "184": 29023, "\u0120Amph": 29103, "\u0120constantly": 5861, "\u0120derail": 17991, "525": 29451, "recent": 38696, "\u0120Esports": 44566, "\u0120tirelessly": 25658, "\u0120enrol": 23716, "\u0120narrowing": 29360, "Twenty": 37703, "\u0120premium": 4549, "\u0120viable": 10676, "886": 40294, "ews": 10269, "\u0120beings": 14766, "Bay": 20861, "\u0120badly": 7340, "\u0120Consortium": 31693, "ysical": 45537, "\u0120Yemeni": 23045, "\u0120midterm": 12076, "iege": 45245, "\u0120torture": 11809, "\u0120interested": 2509, "\u0120Ald": 8019, "\u0120IRA": 21635, "\u0120destroyed": 4957, "\u0120Reb": 21826, "ooters": 22923, "\u0120Tool": 25251, "\u0120striving": 25514, "\u0120Herm": 32862, "\u0120egg": 8380, "rika": 19866, "\u0120Clo": 21627, "\u0120word": 2136, "\u0120Shots": 35037, "\u0120Civ": 37791, "\u0120sweeping": 9893, "\u0120erection": 42104, "BW": 42150, "interesting": 42746, "pred": 37466, "\u0120Multi": 19268, "\u0120Teachers": 14245, "\u0120FP": 26046, "v": 705, "Originally": 44622, "\u0120(<": 48082, "Ga": 32675, "===": 47463, "\u0120decisions": 2390, "\u0120mage": 48727, "\u0120ocean": 6444, "\u0120Immigration": 10294, "\u0120murders": 13119, "\u0120behest": 35330, "\u0120Nevertheless": 12888, "\u0120hover": 30731, "uffle": 15315, "\u0120internship": 27652, "rev": 23559, "\u0120staffed": 29796, "\u0120Pastor": 15489, "\u0120h": 1368, "\u0120Wan": 18015, "\u0120estimates": 2785, "Sullivan": 26745, "uton": 27520, "177": 28129, "healthy": 33353, "\u00d1\u0123": 36709, "\u0120Food": 3652, "\u0120manageable": 25832, "iser": 5999, "\u0120wound": 7725, "\u0120imprisonment": 14804, "\u0120motions": 23763, "Electric": 40906, "\u0120strip": 9572, "\u0120Ragnar": 45470, "\u0120clamp": 24241, "\u0120apartheid": 25329, "\u0120characterization": 34934, "\u0120Britann": 41267, "\u0120promotions": 16668, "\u0120agencies": 2244, "\u0120Happ": 15799, "\u0120refurb": 17880, "\u0120fostering": 26242, "\u0120subscribed": 33339, "\u00d8\u00a7\u00d8": 34955, "\u0120Res": 4787, "\u0120confinement": 25615, "elled": 16349, "\u0120revived": 19096, "\u0120Insp": 19190, "\u0120superiority": 32951, "\u0120enrichment": 27444, "\u0120304": 33121, "\u0120therape": 34706, "120": 10213, "\u0120Dresden": 39289, "igham": 45859, "\u0120intox": 40524, "\u0120reflecting": 10811, "\u0120spreads": 16268, "Av": 23389, "Start": 33724, "\u0120championship": 2836, "\u0120Dollar": 11512, "J": 863, "liament": 37078, "\u0120archived": 37240, "gradient": 49433, "\u0120Sussex": 11799, "oken": 22036, "Layer": 48159, "ampions": 34459, "\u0120Nug": 25314, "\u0120antim": 38573, "gram": 28526, "aughed": 48250, "\u0120Japanese": 2898, "cott": 17083, "\u0120Gujar": 44331, "\u0120condolences": 13110, "iblings": 44271, "\u0120fond": 10882, "\u0120paramedics": 16443, "\u0120Indiana": 4552, "only": 8338, "Scroll": 45133, "\u0120speed": 2078, "\u0120unavoid": 47976, "ampton": 18576, "172": 29250, "\u0120Frankfurt": 14184, "govtrack": 49941, "esh": 4891, "\u0120INT": 30497, "Educ": 46104, "\u0120fundamental": 6451, "\u0120of": 9, "\u0120exercises": 10592, "\u0120Auckland": 14664, "short": 20263, "\u0120TYPE": 44731, "\u0120pamph": 42622, "\u0120sarcast": 42706, "uania": 48370, "RA": 4396, "isu": 30569, "31": 2983, "they": 10010, "\u0120synthesis": 37423, "ifling": 31542, "\u0120flashy": 31005, "85": 4531, "scenes": 22270, "usky": 24813, "90": 3248, "\u0120abusive": 14202, "\u0120upholding": 29775, "\u0120attached": 7391, "acts": 19170, "iven": 19239, "aways": 17119, "\u0120fore": 4899, "586": 38014, "\u01201897": 44113, "\u0120Lob": 20561, "Farm": 36587, "arde": 19043, "\u0120Andersen": 23248, "\u0120lowly": 34666, "\u0120spree": 19541, "chy": 17414, "\u0120exponentially": 30413, "\u0120Micro": 10719, "\u0120oblig": 23762, "tion": 24659, "141": 27142, "ophon": 34579, "\u0120Nieto": 22271, "\u0120covered": 2913, "\u0120Fior": 42279, "\u0120rs": 47752, "cur": 17742, "\u0120Benz": 23214, "\u0120slices": 23873, "524": 38803, "Aff": 41085, "\u0120MER": 35055, "Rev": 38494, "unny": 40485, "\u0120Fur": 20376, "lein": 22593, "Ban": 33809, "usion": 15727, "\u0120au": 8477, "\u0120bosses": 14063, "\u0120persona": 17819, "\u0120Vu": 17877, "Great": 19065, "ielding": 22613, "1980": 34499, "\u0120Highest": 36136, "\u0120predicted": 6126, "ammu": 15614, "533": 38037, "\u0120Or": 1793, "\u0120Ark": 19365, "lights": 20888, "\u0120melody": 33301, "\u0120Win": 5711, "Kenn": 39361, "\u0120interpersonal": 40226, "hemer": 40557, "\u0120search": 1707, "\u0120Peninsula": 11069, "German": 27709, "\u0120Premiership": 20230, "\u0120fraudulent": 15381, "\u0120contamin": 40214, "\u0120thou": 44761, "\u00e3\u0125\u0128": 49312, "\u0120encouragement": 18197, "raits": 43182, "\u0120xp": 49288, "\u00e3\u0125\u00a4": 49896, "\u0120vandal": 24604, "\u0120Corp": 1913, "\u0120forceful": 32165, "\u0120ago": 536, "\u0120Cl": 2893, "\u0120organis": 31944, "\u0120strongh": 35771, "\u0120microsc": 40867, "\u0120Bitcoin": 8518, "\u0120Governments": 26581, "iot": 13214, "\u0120scr": 17940, "itted": 16430, "eering": 28829, "\u0120Having": 5365, "\u0120Py": 19972, "\u0120Grove": 9851, "\u0120monstrous": 34957, "\u0120Koreans": 16818, "rown": 19649, "\u0120LEGO": 35509, "pread": 47561, "\u0120Clark": 4433, "\u0120photographer": 9463, "orth": 22494, "\u0120debut": 2453, "\u0120enables": 9849, "587": 38878, "\u0120Recon": 25273, "ittees": 45625, "\u0120Cannon": 19908, "\u0120emailed": 13892, "\u0120Clarence": 18745, "\u0120Richie": 20468, "\u0120239": 30716, "\u0120murderous": 32883, "keepers": 15214, "\u0120veget": 37999, "\u0120\u00e2\u0136": 46277, "\u0120Emails": 19029, "\u0120happ": 48288, "\u0120freshman": 6047, "\u0113": 50127, "\u0120ASS": 20860, "\u0120Reserve": 3965, "\u0120shame": 9208, "\u00c3\u00b6": 3671, "\u0120ALSO": 9459, "\u0120motto": 24609, "\u0120Sov": 41162, "\u0120cost": 701, "\u0120Perry": 6220, "\u0120Ze": 10915, "\u0120hugging": 31164, "\u0120axis": 31799, "\u0120Clock": 31806, "\u0120biblical": 30038, "293": 32329, "104": 17573, "\u0120Apex": 36273, "\u0120gui": 48125, "\u0120leisure": 16906, "\u0120nec": 42179, "\u0120Martial": 22510, "Sunday": 21583, "\u0120Mush": 21804, "\u0120sailed": 24318, "\u0120suicides": 28263, "urbed": 35250, "\u0120LOVE": 31124, "/\"": 47770, "\u0120sailor": 34018, "What": 2264, "raged": 43481, "\u0120minus": 10877, "\u0120thanked": 9079, "\u0120condemnation": 19973, "\u0120Clippers": 12190, "\u0120Cannes": 18702, "\u0120Manit": 34406, "\u0120386": 42161, "\u0120enchanted": 44141, "32": 2881, "crime": 18608, "\u0120insurer": 13720, "\u0120Seriously": 29945, "\u0120yacht": 22413, "\u0120famed": 14661, "\u0120abund": 47674, "height": 37009, "\u0120puzzled": 36742, "\u0120Who": 3394, "\u0120therapy": 5804, "\u0120mitigation": 23336, "Tube": 47538, "\u0120Guide": 14670, "\u0120scent": 26431, "\u0120Delay": 44137, "\u0120indicator": 9189, "\u0120reasoning": 20511, "\u0120Nost": 39233, "main": 17894, "Number": 43623, "\u0120hypocr": 43740, "\u0120naturally": 8366, "baby": 29126, "assert": 46346, "\u0120lighter": 13026, "\u0120empath": 37775, "\u0120Bree": 10349, "\u0120stripping": 28546, "\u0120referencing": 24595, "\u0120Vertical": 34813, "\u0120Insect": 44031, "\u0120disrupt": 12414, "\u0120Hav": 22989, "\u0120colored": 20585, "gran": 36799, "addin": 35527, "ipher": 38914, "\u0120MODULE": 49736, "\u0120producing": 5591, "nz": 22973, "VID": 43814, "\u0120204": 28325, "\u0120USD": 6775, "\u0120Workers": 10586, "Source": 7061, "arry": 12795, "\u0120mirrors": 20516, "Cry": 32208, "\u0120bartender": 33080, "\u0120385": 39794, "\u0120resulting": 5203, "ev": 3623, "orld": 39949, "\u0120amazing": 2770, "\u0120intim": 38126, "\u0120causal": 41214, "\u0120Rohing": 41955, "prof": 22376, "\u0120biking": 26879, "\u0120suites": 25200, "RED": 36015, "\u0120Peb": 46458, "\u0120WB": 18398, "\u0120week": 186, "ichi": 20000, "\u0120Ples": 45961, "\u0120since": 187, "\":\"/": 19207, "vable": 43149, "REM": 41548, "\u0120saying": 584, "\u0120classics": 20323, "\u0120Orbit": 39778, "\u0120fares": 18688, "\u0120Stark": 19772, "\u0120channels": 6237, "\u0120Cong": 12249, "\u0120lead": 483, "\u0120Reason": 31613, "\u0120IRC": 44756, "\u0120visiting": 3918, "Fox": 19360, "\u0120convoy": 22369, "\u0120stru": 39180, "Alex": 16804, "ALK": 23284, "\u0120duplication": 41988, "\u0120Fr": 4967, "\u0120Adrian": 10024, "\u0120detrimental": 23883, "umbled": 10434, "\u0120sharp": 4406, "\u0120Halloween": 8789, "irting": 27181, "\u0120ripping": 28304, "\u0120details": 1254, "\u0120Guatem": 33651, "Words": 38257, "\u0120tracts": 40425, "PHOTOS": 42340, "\u0120PsyNet": 50071, "\u0120Collins": 5415, "Fran": 31418, "\u0120Rudolph": 26072, "clone": 31496, "\u0120she": 79, "RS": 8105, "Please": 6715, "\u0120reminded": 9180, ".'\"": 9957, "ernaut": 34699, "fo": 21466, "\u0120MM": 24537, "\u0120clutching": 34631, "\u0120Shut": 36707, "Rand": 38789, "\u0120Application": 11199, "\u0120HIV": 7947, "\u0120cut": 847, "T": 565, "\u0120essay": 14700, "\u0120automobiles": 27596, "semble": 26381, "\u0120ret": 5494, "\u0120Respect": 33106, "\u0120feminists": 37946, "\u0120spiritually": 39704, "\u0120lost": 685, "\u0120viruses": 21717, "\u0120unnamed": 13461, "\u0120Lang": 7883, "chio": 27680, "\u0120our": 84, "Just": 6785, "\u0120goddess": 34293, "\u0120Eddie": 9257, "intent": 46188, "umber": 9936, "\u0120cutter": 34388, "\u0120tasked": 12639, "\u0120portrayal": 22910, "\u0120imaginative": 35026, "\u0120balloons": 22475, "\u0120breweries": 26392, "Children": 31008, "\u0120Meter": 35616, "\u012042": 3330, "\u0120chirop": 40298, "\u0120transports": 36193, "\u0120thumbs": 26081, "\u0120bureau": 12331, "\u0120Rapp": 16199, "\u0120Fault": 42398, "\u0120doubt": 2980, "ga": 2538, "\u0120horr": 48067, "\u0120Combat": 30456, "\u0120Kag": 24803, "iverpool": 47683, "She": 2515, "\u0120parody": 32806, "itute": 26261, "Gar": 31626, "\u0120Protective": 34278, "anked": 22697, "iami": 40879, "Ing": 41702, "Posted": 31195, "Poor": 43094, "\u0120prohibiting": 27043, "ographer": 17115, "gence": 31829, "\u0120Supplementary": 46846, "Hope": 38443, "Iter": 49628, "\u0120militia": 17157, "gov": 7354, "\u0120alpha": 32756, "\u0120daylight": 20335, "\u0120cars": 1677, "\u0120neo": 17863, "\u0120veh": 27102, "\u0120fluids": 26572, "');": 47033, "itable": 11010, "acon": 17486, "rouse": 33214, "\u0120Susan": 6470, "\u0120controlled": 4875, "\u0120Norwich": 18749, "Component": 48767, "\u0120duo": 6458, "\u0120representation": 8985, "\u0120Him": 14003, "06": 4124, "\u0120potassium": 35797, "\u0120Despair": 47786, "\u0120Siren": 46026, "inos": 10968, "\u0120petty": 25070, "\u0120scorn": 38430, "\u0120costs": 1042, "\u0120reference": 5135, "\u0120clock": 6700, "isans": 24103, "\u0120Musk": 7315, "\u0120supra": 46382, "Ult": 47225, "cano": 38754, "\u0120Fill": 24691, "\u0120brew": 20040, "eday": 43975, "\u0120attention": 1503, "\u0120Spokane": 27410, "\u0120adulthood": 28473, "\u0120brilliance": 28505, "anto": 13688, "\u0120shatter": 38637, "\u0120Personality": 40875, "riger": 36152, "\u0120MISS": 31234, "\u0120imagin": 44369, "\u0120Devin": 15692, "\u0120Lanc": 19766, "\u012027": 974, "ieving": 31794, "Match": 42633, "ien": 2495, "\u0120Vari": 41058, "\u0120creed": 40318, "\u0120paired": 11153, "\u0120gained": 3491, "\u00c2\u00b4": 9900, "\u0120Gilmore": 27927, "\u0120bottleneck": 40750, "\u0120microbi": 39998, "\u0120chunk": 15836, "Listen": 32917, "\u0120respir": 44266, "\u0120Fraz": 36979, "Blocks": 48217, "\u0120Prom": 10772, "\u0120threads": 25816, "igers": 41581, "aretz": 40781, "ote": 6457, "\u0120unpredict": 38038, "\"))": 49293, "ake": 5113, "\u0120421": 40685, "\u0120shootout": 13818, "\u0120edges": 15716, "\u0120retreated": 24304, "\u0120Dana": 11014, "\u0120Doing": 22008, "\u0120Strikes": 39889, "chest": 42311, "Arcade": 48736, "\u0120Montreal": 5817, "\u0120Occupations": 48808, "\u0120ATP": 22020, "\u0120assured": 7189, "Met": 25869, "\u0120patron": 18528, "\u0120ashamed": 20085, "kg": 9043, "\u0120amp": 28127, "\u0120808": 34970, "\u0120restless": 36844, "brush": 30241, "\u0120Indeed": 7908, "\u0120Producer": 25992, "\u0120Tasmania": 29314, "\u0120sacks": 10531, "\u0120Afghans": 33468, "\u0120Spy": 26982, "\u0120Isaac": 12370, "\u0120clinicians": 30110, "\u01201998": 6708, "\u0120Ter": 5094, "older": 33780, "\u0120Altern": 33958, "\u0120eerie": 33960, "\u0120Bog": 14380, "OTH": 34072, "etchup": 36862, "agons": 37231, "\u0120gu": 11843, "95": 4015, "\u0120start": 386, "\u0120disgrace": 19846, "land": 1245, "\u0120condo": 20568, "\u0120Theo": 24338, "\u0120Exper": 26403, "contin": 27887, "\u0120glossy": 29282, "herer": 38728, "\u0120Concepts": 42939, "\u0120sweaty": 37487, "\u0120fractions": 44807, "vidia": 47435, "MHz": 38333, "\u0120grids": 38446, "\u0120STAT": 27023, "\u0120Scourge": 49150, "\u0120adj": 34703, "\u0120504": 37311, "\u0120exits": 21855, "\u0120England": 1156, "\u0120Cartoon": 41453, "\u0120Tong": 17922, "\u0120reborn": 43524, "TM": 14386, "\u0120Nina": 20064, "\u0120Fellowship": 26514, "187": 30024, "Larry": 38544, "dirty": 40087, "\u0120unto": 35484, "\u0120hockey": 5006, "\u0120Activities": 26476, "\u0120rev": 6910, "chip": 16142, "\u0120guts": 29294, "\u0120byte": 47893, "vector": 48219, "\u0120disciple": 44352, "\u0120Atkinson": 22553, "\u0120cavern": 37472, "\u0120Rapid": 20632, "399": 26871, "\u0120hull": 31594, "\u0120Votes": 39347, "Ey": 43431, "cock": 14483, "\u0120('": 31509, "\u0120relied": 12767, "\u0120poster": 11566, "\u0120on": 15, "\u0120clears": 30733, "containing": 42480, "\u0120desires": 22215, "``": 49519, "\u0120assign": 28467, "\u0120Edmund": 17862, "unc": 23735, "\u0120worrisome": 29611, "\u0120Jaw": 22359, "\u0120discontin": 29649, "\u0120instr": 49152, "\u0120Colleges": 30553, "\u0120Occasionally": 38998, "LA": 8272, "\u0120Reference": 34177, "urches": 46178, "orbit": 31183, "\u0120Alfred": 15437, "\u0120Nicole": 9185, "regnancy": 34468, "../": 49445, "\u0120merely": 8315, "slow": 33234, "\u0120puts": 4650, "\u0120\u00e3\u0124\u00b5\u00e3\u0125\u00bc\u00e3\u0125\u0128\u00e3\u0124\u00a3\u00e3\u0125\u00af\u00e3\u0125\u00b3": 50248, "\u0120Anaheim": 14232, "\u0120corporations": 9053, "\u010e": 50122, "\u0120scream": 22093, "\u0120shoulder": 4793, "\u0120drowning": 22866, "\u0120sher": 34292, "bomb": 27076, "\u0120Crash": 30522, "\u0120propagation": 44441, "berra": 45760, "\u0120insisted": 5294, "\u0120doubtful": 26645, "\u0120Furious": 30139, "later": 36600, "\u0120Photoshop": 35197, "md": 26296, "\u0120Titans": 9642, "\u0120puff": 32322, "\u0120apr": 28200, "\u0120cla": 42108, "\u0120havens": 31579, "\u0120pearl": 36679, "\u0120colleges": 8975, "ulating": 11539, "effects": 38375, "\u0120constant": 5891, "\u0120mobile": 1830, "nen": 19596, "bing": 6721, "ustomed": 46601, "\u0120diplomatic": 5813, "\u0120Iron": 9940, "usc": 20214, "\u0120Everywhere": 37691, "\u0120Vag": 38840, "\u0120Eight": 10099, "\u0120tackling": 12985, "utherford": 48604, "\u0120final": 507, "\u0120Tiny": 28996, ".......": 44629, "\u0120required": 1552, "\u0120Breitbart": 17441, "\u0120Merrill": 14635, "\u0120IG": 17374, "TRUMP": 47207, "\u0120Clare": 13067, "Top": 14323, "\u0120COM": 15823, "Card": 23818, "angs": 16917, "conn": 22854, "hang": 24610, "\u0120ranking": 7141, "\u0120Leafs": 12931, "keye": 26291, "\u0120Settings": 29020, "edi": 19237, "\u0120Katherine": 16786, "ider": 5326, "Some": 6323, "\")": 8070, "\u0120Graham": 4572, "\u0120slowing": 8464, "\u0120Hispanic": 14362, "\u0120cocoa": 22348, "\u0120difference": 2249, "\u0120review": 1551, "\u0120yogurt": 24351, "okia": 43946, "Material": 47180, "inces": 47292, "CAP": 28494, "..................": 49389, "\u0120teaser": 19690, "\u0120Care": 3800, "\u0120tuberculosis": 33695, "\u0120advantageous": 37382, "pherd": 47501, "\u0120pitted": 30259, "Ter": 32579, "\u0120Golf": 6111, "Gb": 43608, "\u0120Allows": 46729, "\u0120code": 3260, "THER": 38421, "################################": 49674, "\u0120hoped": 5207, "691": 40572, "\u0120allowances": 23885, "\u0120plainly": 32907, "\u0120referral": 25001, "grave": 28348, "Buff": 42021, "\u0120correctly": 12461, "\u0120emerges": 23694, "\u0120Print": 6883, "235": 23821, "\u0120ascent": 33088, "\u0120combatants": 39177, "\u0120thri": 23113, "\u0120Vendor": 41319, "\u0120know": 216, "\u0120health": 474, "\u0120Professional": 12221, "lying": 13010, "\u0120proclamation": 26928, "May": 10004, "\u0120foundational": 35528, "\u0120bene": 42364, "face": 9021, "Thankfully": 42948, "\u0120Dave": 4475, "\u0120murder": 1900, "vel": 5536, "\u0120Rapids": 14266, "\u0120methodological": 46912, "\u0120Stacy": 26269, "\u00be": 4726, "ensitivity": 40275, "\u0120med": 5679, "\u0120flattened": 34395, "\u0120forward": 556, "\u0120M": 256, "\u0120Aub": 17095, "\u0120literacy": 18218, "\u0120Tunis": 24459, "\u0120Brush": 33932, "\u0120mosaic": 37886, "atted": 19747, "\u0120Vul": 44911, "384": 35324, "\u0120ph": 7843, "Ru": 36439, "\u0120Full": 6583, "ering": 2961, "\u00c3\u00b6n": 20905, "\u0120smells": 28078, "\u0120Confederation": 24445, "\u0120metaphor": 26600, "\u0120Edward": 7393, "nah": 29579, "\u0120Bes": 15191, "\u0120bananas": 31130, "\u0120downs": 12071, "\u01201900": 23137, "\u0120artisan": 28639, "isite": 46477, "HL": 8064, "\u0120lesions": 40841, "\u0120banning": 13241, "\u0120Child": 7442, "\u0120Benn": 18524, "\u0120reactor": 25476, "\u0120grammar": 33055, "\u0120tidal": 34214, "\u0120Coconut": 36162, "\u0120mischief": 26245, "\u00e2\u0138\u012a\u00e2\u0138\u012a\u00e2\u0138\u012a\u00e2\u0138\u012a": 49881, "\u0120hemor": 49014, "\u01201930": 15891, "Lab": 30906, "\u01201933": 26873, "702": 36521, "\u0120Bernardino": 18729, "\u0120Hampton": 15737, "\u0120Terminal": 19566, "\u0120ring": 3758, "\u0120warming": 8232, "\u0120Bh": 5371, "\u0120Abd": 15312, "\u0120pigs": 20385, "\u0120refunds": 23025, "\u0120consolid": 24707, "quality": 8634, "\u0120timeless": 25944, "\u0120constructed": 11236, "\u0120hp": 29886, "\u0120Divide": 39030, "Error": 30192, "\u0120immutable": 45495, "riet": 46175, "Mega": 46717, "]+": 49154, "\u0120steam": 10473, "pop": 15076, "yll": 19221, "\u0120brewing": 20525, "\u0120Granted": 31561, "sys": 43103, "\u0120Knight": 8695, "Shot": 42684, "\u0120clim": 23377, "ahah": 43555, "\u0120lawsuits": 8986, "Breaking": 29908, "\u00ce\u00bc": 47049, "\u0120traditional": 2065, "\u0120Unable": 39226, "\u0120Resolution": 22565, "\u00fd": 50105, "\u0120chron": 24600, "\u0120108": 13955, "ioch": 46694, "\u0120strut": 32967, "\u0120Nato": 34674, "\u0120chests": 41125, "\u0120research": 557, "\u0120clown": 21068, "\u0120Fischer": 20942, "\u0120gases": 20038, "\u0120shooters": 22099, "\u0120foll": 40629, "Nice": 41541, "\u0120liable": 19145, "\u0120unequivocally": 33805, "\u0120Crusher": 47844, "\u0120unt": 7587, "\u0120baseman": 10895, "sponsored": 16032, "\u0120umbrella": 16676, "\u0120endorsements": 29539, "\u0120asymm": 34228, "\u0120LOG": 34772, "bitious": 43193, "np": 44976, "\u0120DID": 37051, "\u0120Wonder": 15133, "\u0120Windows": 6039, "\u0120reviews": 6173, "\u0120Harden": 17760, "\u0120Swed": 25517, "677": 38434, "\u0120Gu": 2646, "\",": 1297, "\u0120vibrant": 11577, "\u0120Twenty": 10692, "consuming": 27900, "\u0120habits": 10095, "\u0120Honolulu": 23235, "\u0120meaningless": 27782, "\u0120lobbying": 12812, "\u0120Trout": 22224, "Mat": 30121, "\u0120integration": 7465, "\u0120Ax": 14249, "\u0120barg": 21936, "\u0120thief": 23503, "company": 24233, "\u0120latency": 35940, "adium": 22131, "\u0120BAD": 39485, "\u0120authenticity": 21341, "\u0120Strategy": 12660, "Factor": 43622, "\u0120spurious": 43310, "\u0120Burst": 44749, "\u0120craw": 36526, "KC": 32428, "times": 14616, "osponsors": 48181, "\u0120loudly": 24120, "\u0120renovations": 18748, "\u0120contributions": 5694, "\u0120Wool": 14924, "\u0120motion": 4298, "`": 12905, "\u0120Loop": 23005, "\u0120toxicity": 35260, "aque": 35485, "\u0120prog": 17618, "\u0120Bulldogs": 10135, "\u0120numer": 36247, "659": 38223, "\u0120HAM": 37452, "\u0120Parenthood": 15805, "\u0120Burns": 11247, "\u0120Protoss": 49737, "\u00af": 10965, "\u0120cruise": 9135, "ophob": 46001, "\u0120Anim": 38393, "\u0120crazy": 5373, "\u0120Chomsky": 46179, "Products": 47559, "ItemTracker": 50251, "\u01200": 321, "forces": 34532, "\u0120incompetent": 30740, "\u0120practice": 1524, "Shift": 45161, "\u0120signage": 25152, "\u0120Ut": 11183, "\u0120schizophrenia": 32285, "grading": 40010, "\u0120entitle": 34180, "webkit": 49286, "\u0120costing": 15135, "\u0120OD": 20778, "umerous": 41788, "\u0125": 862, "\u0120miner": 18678, "Johnny": 39249, "\u0120Imperium": 48437, "\u0120competing": 5468, "\u0120Trek": 20351, "\u0120Syrian": 3085, "\u01202100": 32160, "\u0120Winter": 5205, "\u0120albums": 11794, "cam": 16767, "\u0120342": 28911, "\u0120Hand": 7406, "ients": 20676, "\u0120refuses": 16766, "\u0120Inventory": 40829, "\u0120reconstructed": 41321, "\u0120enum": 49562, "\u0120angered": 20166, "\u0120Tara": 20916, "\u0120Peoples": 14695, "economic": 12063, "\u0120SEAL": 28820, "\u0120Vet": 29011, "\u0120played": 702, "\u0120mind": 1508, "\u0120accompan": 38963, "\u0120sphere": 23567, "\u0120hypnot": 39040, "Hart": 39657, "PUT": 42030, "uggest": 49266, "rigan": 27294, "\u0120Fully": 37881, "\u0120Vec": 39800, "rican": 45215, "\u0120block": 1803, "credit": 32598, "\u0120Dart": 35022, "apache": 48530, "\u0120Browser": 45227, "Requirements": 49269, "\u0120decisive": 12703, "\u0120paran": 48645, "\u0120undis": 31049, "Those": 11195, "isively": 46504, "Secure": 44381, "28": 2517, "\u0120phenomenal": 16599, "\u0120compounds": 18291, "\u0120lobbyists": 25045, "\u0120Mets": 9024, "nea": 22423, "retch": 39717, "tube": 46389, "\u0120firearms": 9855, "\u0120Using": 8630, "\u0120narrower": 34700, "\u0120Alf": 15246, "\u0120Assembly": 3389, "\u0120deserves": 8613, "\u0120Controls": 36879, "\u0120Gateway": 20996, "\u0120downloads": 28403, "Wonder": 33378, "[\"": 49329, "\u0120Prel": 26449, "\u0120unfolded": 21365, "otiation": 33524, "\u0120confirmed": 1474, "\u0120toppled": 21753, "\u0120clue": 18664, "\u0120Gained": 48564, "729": 40125, "\u0120anterior": 34988, "yah": 31785, "\u0120devoted": 11213, "\u0120nostalgia": 22531, "\u0120upkeep": 37609, "\u0120Superior": 11486, "\u0120mp": 44857, "\u0120bounce": 9952, "\u0120Appl": 36532, "\u0120recalled": 4841, "okane": 47851, "\u0120righteous": 37909, "\u00e9\u00bb\u0134": 50021, "\u0120towns": 6815, "\u0120blister": 21786, "\u0120endurance": 25160, "\u0120Lebanese": 17146, "mie": 23738, "change": 14035, "\u0120fences": 23540, "beer": 38788, "\u0120horribly": 35907, "\u0120griev": 34713, "\u0120unequ": 46321, "\u0120painted": 10122, "220": 16846, "\u0120Republicans": 1858, "\u0120mids": 31642, "\u0120tast": 24867, "\u0120ever": 655, "\u0120Hyde": 17229, "rade": 16299, "\u0120rampant": 18898, "amp": 3914, "ictive": 37601, "ourning": 46269, "\u0120livest": 49493, "\u0120divorce": 7402, "\u0120undisclosed": 15120, "\u0120galvan": 26939, "\u0120302": 31773, "Such": 27331, "enance": 37469, "\u0120extending": 9148, "\u0120ener": 38351, "\u0120Venezuelan": 14112, "\u0120?)": 49380, "\u0120Castro": 12104, "\u0120daughters": 7172, "\u0120spit": 28757, "\u0120errors": 9126, "\u0120colleague": 9896, "\u0120seamlessly": 23458, "\u0120Ler": 23813, "\u0120Arabian": 22656, "\u0120texting": 19943, "\u0120presentation": 5209, "\u0120deficiency": 30367, "\u0120seminal": 36059, "\u0120potency": 39439, "\u0120179": 29189, "\u0120chick": 30802, "\u0120rescind": 21961, "\u0120communities": 1822, "ograms": 39450, "\u0120Tray": 39908, "entials": 40288, "\u0120schemes": 10419, "oidal": 44405, "].": 8174, "\u0120prost": 22115, "\u0120jelly": 29450, "607": 32774, "\u0120Abu": 4896, "lection": 20576, "\u0120laboratories": 29007, "\u0120Muse": 19345, "\u0120Rik": 41636, "\u0120UFOs": 44524, "controller": 45294, "asive": 33745, "ealous": 30783, "\u0120Helpful": 46441, "\u0120pregn": 49564, "\u0120neuron": 44844, "\u0120tactic": 17207, "DA": 3134, "tier": 15512, "ellar": 40909, "\u0120Gw": 17822, "chers": 7873, "tions": 31291, "\u0120welcomes": 16795, "Ant": 18348, "\u0120antagonist": 40243, ")]": 46077, "Custom": 36962, "reddits": 49607, "IF": 7025, "\u00a2": 7258, "\u0120banquet": 28203, "\u0120commanded": 30655, "\u0120infographic": 42745, "Especially": 34285, "\u0120sc": 2850, "\u0120internal": 3425, "\u0120innocent": 7850, "\u0120allied": 18668, "\u0120oxidative": 46099, "\u0120alternatives": 10514, "\u0120Petroleum": 9022, "\u0120Mattis": 10860, "\u0120illnesses": 14971, "!!!": 16506, "\u0120mining": 4481, "\u0120Certainly": 20240, "\u0120Dum": 16664, "\u0120vig": 28131, "isel": 28318, "\u0120powerhouse": 17343, "\u0120Latinos": 28514, "\u0120226": 30527, "govern": 32019, "occup": 32283, "\u0120conductor": 24856, "generated": 21842, "\u0120Rehab": 22969, "\u0120pounded": 31101, "actus": 33028, "\u0120juggling": 33261, "secure": 34153, "Hon": 35846, "\u0120Plex": 41707, "fa": 12010, "essee": 39941, "\u0120SDK": 42823, "agara": 45282, "avers": 19557, "\u0120whom": 2661, "\u0120whisk": 22879, "\u0120IMAGES": 38329, "\u0120railway": 10780, "\u0120Tort": 28977, "Flag": 46191, "ospels": 46542, "\u0120module": 20686, "Mode": 47062, "depending": 43548, "\u0120cheek": 15401, "\u0120crime": 1846, "\u0120biologically": 43137, "\u0120other": 97, "idget": 20356, "\u0120OU": 38923, "\u0120Rem": 8022, "\u0120NASA": 6109, "\u0120semen": 41291, "xiety": 43537, "\u0120Kuala": 18959, "\u0120annual": 1013, "\u0120Luc": 7483, "\u0120cigar": 36978, "ilipp": 33465, "iddles": 40741, "Very": 25101, "ARR": 26952, "ocobo": 49694, "101": 12636, "ggie": 30210, "\u0120paints": 24995, "\u0120rejecting": 19695, "Additionally": 42713, "\u0120Hast": 42757, "\u0120powdered": 39143, "\u0120fail": 5998, "\u0120in": 11, "ciples": 44633, "isSpecial": 50214, "\u0120Wenger": 10945, "\u0120syndrome": 14115, "\u0120uncertainties": 10389, "\u0120\u00d0": 18697, "\u0120ATM": 20432, "illes": 22244, "\u0120antagonists": 45572, "Client": 47952, "\u0120healthy": 2245, "\u0120timelines": 31583, "ying": 4048, "iu": 9060, "athi": 20206, "Take": 21031, "\u0120Exposure": 40032, "utes": 11282, "\u0120socially": 17208, "\u0120Id": 10367, "\u0120HUN": 35822, "nesday": 46836, "\u0120Demon": 19134, "\u0120hating": 40873, "\u0120navigation": 14461, "\u0120Idol": 25810, "atur": 8367, "oxin": 42194, "recomm": 43140, "\u0120Baldwin": 9853, "\u0120Stamford": 15951, "\u0120salon": 21425, "\u0120ausp": 31045, "bek": 31211, "\u0120emotion": 11926, "Windows": 43815, "asury": 44379, "\u0120constitution": 7255, "\u0120laughter": 16805, "isters": 16729, "aer": 27075, "icks": 8370, "\u0120assignments": 21350, "ym": 8307, "\u0120easy": 1365, "\u0120Bald": 19123, "mate": 10008, "View": 22130, "\u0120formal": 4828, "\u0120380": 27264, "\u0120dozen": 4039, "\u0120intrusive": 35958, "Bon": 35994, "ological": 9779, "\u0120worrying": 12648, "\u0120spirituality": 37093, "\u0120Ascension": 41049, "appropriately": 46626, "uckle": 29907, "eligible": 40581, "Liberal": 44785, "\u0120exclusive": 5451, "TAG": 46985, "\u0120db": 45655, "1027": 48636, "\u0120transplant": 14067, "\u0120Za": 22721, "\u0120Russo": 26479, "xit": 37845, "\u0120road": 921, "\u0120territ": 38064, "North": 11073, "pes": 29270, "@": 1039, "\u0120send": 2142, "\u0120Trem": 31103, "Ut": 41967, "\u0120Rect": 44600, "\u0120APPLIC": 23780, "\u0120unint": 45467, "\u0120enjoyed": 3776, "\u0120heterogeneity": 47788, "\u0120electron": 35235, "\u0120Zub": 30143, "\u0120backup": 8010, "\u0120contractors": 9617, "hya": 18321, "phant": 44254, "\u0120Lynn": 9840, "\u0120autumn": 13270, "\u0120Ind": 4619, "\u0120reg": 6701, "\u0120behalf": 4137, "\u0120Portal": 31802, "\u0120whiff": 36850, "imental": 40955, "atts": 26366, "sequently": 35513, "\u0120proves": 14476, "regn": 40119, "othing": 45521, "\u0120clever": 13074, "\u0120laughed": 13503, "Ah": 17986, "\u0120Kuh": 29869, "\u0120pred": 12574, "\u0120five": 292, "\u0120adv": 34369, "\u0120appliances": 14636, "Billy": 38056, "\u0120Ko": 8723, "pb": 45306, "\u0120Ajax": 24857, "\u0120velvet": 29986, "\u0120meats": 26627, "\u0120admissions": 18054, "\u0120Rabb": 34023, "ession": 21308, "\u0120incompetence": 31204, "\u0120simulate": 34233, "\u0120255": 28080, "\u0120Kodi": 34754, "\u0120noticeable": 20228, "\u0120prose": 30796, "\u0120assurance": 15492, "\u0120breached": 18646, "Basic": 46255, "\u0120Mous": 23950, "d": 417, "\u0120Two": 1596, "\u0120duties": 5941, "\u0120Nic": 13608, "\u0120ranch": 17060, "\u0120AFL": 16305, "\u0120electrical": 8980, "fan": 19302, "OP": 5733, "\u0120pulse": 22293, "\u0120Prin": 26093, "\u0120animated": 12847, "\u0120wave": 4605, "\u0120Liber": 16129, "Australia": 25533, "\u0120Flickr": 33608, "start": 13124, "\u0120morphed": 34863, "eca": 15366, "\u0120glitches": 37224, "authors": 35827, "\u0120playing": 816, "\u0120cartridge": 41785, "\u0120457": 42346, "\u0120dissertation": 43181, "\u0120scrim": 43473, "\u0120lib": 21748, "Touch": 40121, "\u0120Doctors": 14404, "\u00e5\u00a7\u00ab": 50047, "\u0120Cloak": 47027, "\u0120Sell": 12292, "\u0120HDR": 22899, "\u0120baseline": 18043, "\u0120unwilling": 20656, "\u0120ridic": 42092, "\u0120variation": 21875, "\u0120lot": 319, "\u0120outputs": 39512, "imus": 40439, "\u0120Solid": 19324, "\u0120Formation": 42449, "\u0120machinery": 13922, "\u0120disappear": 14529, "\u0120bike": 4806, "\u0120React": 30001, "\u0120migrant": 10822, "\u0120olds": 36504, "\u0120Greenpeace": 31637, "Seeing": 37818, "Counter": 44057, "\u0120crocod": 28736, "\u0120Beauty": 12625, "\u0120Aw": 11614, "Prov": 35746, "\u0120games": 426, "\u0120Mans": 11093, "comb": 15302, "Magic": 35877, "\">": 46479, "\u0120Investments": 10966, "\u0120hurdles": 14252, "ernal": 45738, "\u00e9\u00be\u012f\u00e5\u00a5\u0133\u00e5\u00a3\u00ab": 50224, "throw": 26003, "ious": 6514, "\u0120intensity": 10603, "\u0120Kra": 16379, "\u0120letter": 1601, "payer": 30446, "\u0120Falk": 21393, "itutional": 12279, "\u0120Including": 12526, "\u0120trove": 32462, "\u0120authorized": 8672, "\u0120subsidies": 10256, "\u0120solve": 6136, "\u0120glucose": 26071, "\u0120obsess": 34668, "aughter": 35609, "\u0120vicious": 16339, "ums": 8014, "\u0120realism": 35402, "\u0120resurrected": 38952, "\u0120Jag": 17478, "established": 22234, "\u0120adore": 37282, "ores": 4765, "\u0120cargo": 9145, "\u0120Everything": 9567, "\u0120Spear": 37828, "\u0120analog": 26903, "\u0120jaws": 38332, "xious": 39024, "\u0120Virus": 41199, "dust": 42910, "\u0120masterpiece": 27107, "\u0120Bonds": 23419, "\u0120thrown": 5629, "\u0120Var": 9676, "\u0120Then": 1892, "\u0120parliamentary": 7179, "\u0120Planning": 9619, "\u0120nifty": 37161, "\u00e5\u013d": 47516, "Height": 48674, "steps": 27091, "\u0120base": 1542, "camera": 25092, "\u0120Ragnarok": 39719, "\u0120several": 484, "\u0120Wei": 27080, "\u0120Dinosaur": 44470, ">>>>": 48902, "\u0120Conservation": 12978, "\u0120breeze": 24572, "\u0120drilled": 20463, "\u0120grappling": 22840, "132": 24083, "\u0120monks": 35643, "\u0120Petition": 40505, "ociate": 43097, "\u0120Frank": 3848, "\u0120locations": 3237, "\u0120manual": 12769, "\u0120investigators": 3725, "\u0120WC": 22673, "\u0120riders": 7887, "\u0120Waves": 35928, "\u0120usual": 4505, "\u0120conceived": 23426, "Cr": 29792, "\u0120uphe": 45398, "\u0120Reboot": 46881, "\u0120inning": 3715, "\u0120Vel": 12570, "\u0120habitat": 14294, "Features": 48192, "=~=~": 50189, "\u0120businesses": 1252, "andi": 17849, "manufact": 29280, "55": 3118, "Imm": 37380, "iers": 4733, "\u0120377": 37494, "\u0120Obama": 1284, "Having": 15852, "\u0120analogous": 44066, "\u0120noises": 27903, "\u0120raises": 7700, "selection": 44209, "\u0120belief": 6563, "ikes": 13349, "275": 21138, "\u0120nost": 32876, "disable": 48986, "iences": 27797, "\u0111": 50125, "Mask": 47661, "\u0120json": 49133, "painted": 34843, "\u0120producer": 3436, "\u0120demonstrate": 8085, "\u0120Rockets": 11476, "\u0120subscribe": 11222, "\u0120Rudy": 20243, "\u0120Emerging": 18722, "efully": 24358, "ically": 3435, "atic": 5183, "rot": 12179, "\u0120lays": 22533, "\u0120teasing": 29752, "\u0120skirts": 31296, "\u0120flirt": 33743, "vt": 26390, "Moving": 41780, "\u0120Golden": 3274, "\u0120therapies": 17094, "\u0120linear": 26956, "\u0120courage": 9699, "\u0120apologizing": 31216, "\u0120Hurt": 31797, "\u0120goalt": 32385, "idan": 34343, "\u0120proved": 4362, "\u0120dismal": 23446, "urus": 37716, "613": 39669, "\u0120remed": 22104, "Compare": 45448, "\u0120aiming": 9998, "clock": 17036, "\u0120investigation": 803, "\u0120commentators": 22800, "\u0120hiatus": 25224, "Throughout": 36428, "rament": 42414, "\u0120Optical": 36132, "\u0120infer": 40182, "\u0120Referred": 47374, "\u0120spat": 20231, "\u0120TD": 7463, "\u0120Sod": 33270, "Notice": 47077, "\u0120deeply": 4814, "\u0120smile": 6675, "\u0120dominating": 17349, "\u0120;": 25606, "\u0120towels": 26073, "\u0120Whip": 31873, "\u0120ALL": 12389, "\u0120face": 652, "\u0120Caption": 19754, "GRE": 41982, "utm": 44992, "ersive": 45809, "arij": 43482, "\u0120woods": 14193, "\u0120erase": 24300, "asure": 24669, "\u0120rhythms": 32618, "\u0120Raleigh": 19498, "\u0120Includes": 37626, "pects": 31084, "\u0120sales": 647, "\u0120catcher": 14078, "\u0120Sph": 46556, "\u00d7": 42358, "\u0120Hannah": 11029, "\u0120Dom": 11349, "\u0120delivery": 2996, "\u0120Warriors": 4223, "\u0120Normal": 26411, "\u0120torment": 34686, "amba": 14996, "\u0120unp": 23089, "Alternative": 46759, "dem": 12789, "\u0120Transparency": 24244, "\u0120Packers": 8752, "\u0120Buckley": 24937, "DEV": 47233, "Gay": 43086, "\u0120unarmed": 19782, "cum": 30639, "kids": 28371, "Artist": 45862, "\u0120Guitar": 32453, "\u0120Einstein": 27648, "005": 31866, "abby": 35878, "lov": 26979, "\u0120crate": 37656, "las": 15086, "\u0120Redskins": 12994, "month": 2151, "\u0120KNOW": 37279, "Analysis": 43932, "\u0120Tiff": 39627, "\u0120Na": 7300, "\u0120Jump": 22824, "imentary": 44822, "\u0120Liquid": 20785, "\u0120Pryor": 31406, "\u0120equations": 43123, "\u0120little": 410, "\u0120Globe": 10249, "\u0120acoustic": 21979, "\u0120Bohem": 35118, "org": 1957, "\u0120recognizing": 16257, "\u0120skewed": 30957, "Meanwhile": 38488, "\u0120FIG": 37365, "\u0120evaluate": 10516, "\u0120fewer": 4163, "\u0120secured": 5288, "\u0120Astros": 10938, "\u0120orche": 30062, "Finally": 35703, "\u0120HOUSE": 35923, "avoid": 40623, "\u0120gross": 4200, "\u0120missed": 2039, "\u0120boom": 8600, "\u0120dispatched": 14987, "getic": 46151, "\u0120cheated": 25177, "\u0120Cody": 11785, "MIC": 45717, "gnu": 49022, "ital": 8632, "contact": 32233, "\u0120adhesive": 40760, "\u0120IPA": 34472, "riz": 21645, "ja": 1910, "\u00e3\u0125\u0141": 49644, "world": 8331, "\u0120Akira": 41644, "\u0120Birthday": 23596, "Rogue": 44495, "\u0120NBC": 3890, "for": 1990, "HP": 7331, "\u0120tanks": 12039, "\u0120confirms": 13815, "\u0120Luk": 10920, "\u0120borough": 14892, "point": 2300, "TX": 30200, "\u012c\u00b1": 49550, "\u0120Sector": 15816, "'.\"": 24992, "RAY": 37327, "\u0120morphine": 39057, "cluding": 19586, "\u0120invite": 9603, "\u0120vib": 23338, "Half": 39780, "Adapt": 46874, "\u0120securities": 5157, "Effects": 48730, "\u0120Ottoman": 37625, "english": 47120, "Nature": 43984, "\u0120conducted": 2964, "Hundreds": 36062, "uck": 5858, "\u0120Smash": 34402, "etsk": 46171, "\u0120grows": 11461, "xual": 47830, "helps": 44590, "\u0120guarantees": 12360, "ople": 28948, "968": 41258, "\u0120caution": 8038, "limited": 27829, "\u0120lowers": 32222, "\u0120intangible": 32977, "\u0120Latter": 38819, "\u0120graves": 21264, "\u0120Executive": 2483, "\u0120PKK": 31968, "\u0120Kot": 15542, "\u0120Transformers": 34379, "Updated": 37973, "\u0120Daylight": 41992, "\u0120subdued": 20247, "\u0120froze": 32516, "ichael": 25554, "\u0120police": 249, "med": 4567, "\u0120sold": 1088, "bees": 41304, "add": 4917, "\u0120firing": 5834, "ogether": 40865, "anke": 23578, "\u0120accompany": 20453, "\u0120Repl": 26103, "));": 48749, "Government": 28747, "\u0120accelerator": 31463, "\u0120trainers": 17120, "umsy": 48357, "\u0120incoming": 11433, "\u0120Westminster": 11215, "\u0120obese": 24409, "\u0120groundwork": 27615, "ZZ": 31748, "neau": 21957, "\u0120peas": 33199, "Charges": 47654, "\u0120sent": 1051, "Flo": 45203, "\u0120guest": 4910, "\u00e3\u0127\u012d\u00e3\u0127\u012d": 49865, "\u0120countries": 749, "\u0120hired": 4547, "oise": 22941, "kun": 35889, "\u0120insur": 36686, "\u0120Age": 8927, "\u0120proponent": 33060, "\u0120Beet": 43955, "\u0120merchant": 22283, "){": 48512, "ubuntu": 48099, "\u0120starter": 6135, "selage": 41195, "\u0120translated": 16877, "\u0120acknowledges": 17748, "adier": 28071, "\u0120Capcom": 42588, "\u0120websites": 7656, "\u0120shake": 8559, "\u0120mag": 9931, "isk": 6812, "\u0120massacre": 12998, "\u0120driveway": 17139, "looking": 3690, "\u0120compan": 40005, "ching": 7968, "QUEST": 46392, "oms": 6806, "ARK": 16165, "Lib": 37688, "\u0120foss": 48063, "\u0120mixer": 36405, "extra": 30842, "assed": 29591, "\u0120whis": 43674, "cies": 32510, "Destroy": 47966, "\u0120kidnapping": 12311, "asher": 37229, "Visual": 47008, "\u0120Rio": 5716, "\u0120calculated": 9658, "\u0120Kamp": 22194, "\u0120respectful": 18025, "\u0120unsolved": 31787, "TD": 22615, "KA": 14559, "190": 20109, "omes": 9898, "\u0120outlet": 9455, "winner": 20547, "\u0120developer": 6596, "rows": 13415, "\u0120roadside": 22493, "\u0120slug": 17744, "155": 21403, "\u0120asbestos": 28962, "\u0120occupant": 31951, "Si": 35684, "\u0120Defenders": 30430, "\u0120ethanol": 24731, "isal": 26860, "494": 38249, "ris": 4663, "\u0120Haskell": 38592, "leted": 36140, "aceous": 40576, "aples": 48140, "ixed": 24194, "610": 33375, "ISTER": 33024, "\u0130\u012d": 49756, "\u0120Matthews": 10484, "\u0120Emb": 6133, "display": 34045, "466": 38620, "\u0120recovering": 7979, "\u0120tweak": 28098, "\u0120Pixar": 32000, "\u0120sponsor": 9242, "chall": 25324, "\u0120socioeconomic": 33314, "\u0120Edwards": 7020, "Physical": 46577, "\u0120unrealistic": 25477, "\u0120cr": 3977, "laus": 33012, "\u0120mand": 17047, "\u0120selectively": 36944, "Load": 47167, "\u0120usable": 33927, "\u0120Are": 3945, "\u0120blunt": 18720, "\u00c3\u00afve": 48350, "\u0120Tokyo": 5308, "\u0120likewise": 24489, "\u0120Neutral": 35133, "\u0120Homer": 32153, "\u0120screenplay": 26735, "\u0120Bod": 21116, "Scope": 45190, "\u0120renovation": 14256, "\u0120JC": 28675, "elcome": 42557, "status": 29552, "\u0120screaming": 11347, "\u0120Bon": 5520, "\u0120flames": 8493, "\u0120Simpsons": 36942, "bringing": 44710, "-)": 45406, "\u0120comed": 30632, "\u0120nursing": 8701, "\u0120Rash": 9516, "\u0120Aqua": 32997, "\u0120undefeated": 15088, "\u0120scanners": 35834, "\u0120convoluted": 40200, "\u0120mis": 3834, "\u0120nickname": 17911, "\u0120undersc": 18010, "\u0120top": 299, "\u0120ELECT": 36630, "\u0120tube": 16875, "\u0120mell": 34384, "\u0120altered": 15992, "\u0120agre": 48425, "\u0120cracked": 16212, "\u0120auth": 48639, "tal": 29420, "\u0120another": 277, "izoph": 49560, "\u00d0\u00b0": 26161, "\u0120diversity": 5845, "\u0120slander": 39455, "\u0120skillet": 35243, "\u0120Spencer": 8153, "\u0120undue": 22315, "core": 7293, "\u0120exterior": 14163, "\u0120enacted": 14673, "\u0120were": 58, "\u0120loosen": 30686, "\u0120mish": 24601, "\u0120externalToEVA": 50168, "mere": 25416, "\u0120:)": 44660, "\u0120Instrument": 28559, "\u0120lighting": 7526, "\u0120basics": 17293, "Cele": 31431, "\u0120Scarlett": 27473, "\u0120caching": 44499, "\u0120rehears": 22698, "\u0120divides": 27384, "\u0120Speaking": 3580, "\u0120Inside": 10277, "\u0120Sing": 10413, "avan": 10937, "\u0120compromising": 25985, "GEN": 30965, "\u0120obs": 39048, "\u0120jeopard": 19059, "\u0120tam": 19665, "\u0120Coca": 16103, "VK": 40031, "ilities": 42651, "\u0120Spa": 18642, "emn": 43298, "\u0120esoteric": 43962, ".\"[": 45333, "\u0120chess": 25109, "\u0120hardness": 46743, "\u0120license": 4385, "\u0120suite": 10606, "fried": 21209, "\u0120Thomas": 1813, "\u0120atomic": 21495, "\u0120Defendant": 42095, "\u0120temptation": 27766, "\u0120Huge": 32202, "yl": 4360, "ami": 5602, "\u0120Tam": 7736, "abet": 32479, "Emergency": 40638, "\u0120paper": 2225, "\u0120franchise": 3468, "\u0120evade": 25866, "\u0120tempered": 31380, "eve": 26707, "\u0120engulf": 36272, "\u0120matching": 8150, "leigh": 19343, "Posts": 45916, "Paper": 44986, "ships": 31404, "\u0120Ivory": 22256, "\u0120Empress": 43485, "\u0120Karl": 8328, "\u0120Xander": 36052, "\u0120savior": 40611, "lled": 9970, "\u0120Savannah": 17316, "\u0120versatility": 23193, "\u0120handmade": 26419, "\u0120patience": 11383, "yellow": 34103, "OUP": 44548, "\u0120circuit": 9326, "\u01202009": 2338, "\u0120hip": 6605, "Sport": 19451, "berries": 22852, "\u0120bourgeoisie": 46757, "\u0120Said": 13951, "\u0120Lund": 16800, "nb": 40460, "ancel": 43970, "\u0120minion": 48076, "rella": 33972, "INE": 13974, "\u0120Rodrig": 34238, "\u0120pornographic": 38739, "\u0120seeds": 9775, "346": 34088, "\u0120Downloads": 47428, "\u0120Annotations": 49494, "Discussion": 48763, "ambers": 46877, "\u0120Sacred": 25095, "\u0120Er": 4594, "\u0120bicy": 44821, "\u0120survivor": 14466, "\u0120290": 28482, "\u0120Stability": 32946, "breaking": 10536, "sharp": 41081, "\u0120cabal": 40695, "\u0120prevalent": 18689, "oulder": 21337, "\u0120Alphabet": 15023, "community": 28746, "\u0120stump": 33062, "deck": 38106, "\u0120vodka": 26857, "heavy": 18888, "cosystem": 42451, "\u0120Nigeria": 2000, "\u0120distress": 13250, "\u0120Jackson": 2250, "\u0120Instructions": 22708, "\u0120onslaught": 25174, "650": 16316, "\u0120hydraulic": 29215, "division": 29418, "\u0120Greenberg": 30087, "bs": 4311, "\u0120acne": 30360, "\u0120owing": 14395, "\u0120Kappa": 37772, "\u0120taught": 5850, "uin": 39808, "atio": 42623, "\u0120neighbourhood": 12258, "saf": 43425, "\u0120Challenges": 30380, "loads": 34888, "\u0120@": 787, "\u0120412": 38554, "idges": 42839, "\u0120alters": 43093, "ASY": 44509, "\u0120unemployed": 17580, "\u0120taunt": 44048, "\u0120grieving": 22567, "phen": 37321, "ushes": 27843, "\u0120almonds": 36655, "\u0120stretch": 4140, "\u0120simplify": 24778, "ands": 8771, "\u0120Jericho": 32398, "tx": 43820, "\u0120Quartz": 36544, "\u0120manure": 37187, "ugen": 38424, "\u0120populace": 36921, "\u00e3\u0125\u00b4\u00e3\u0124\u00a1": 50033, "\u0120Cra": 22859, "Hug": 40710, "\u0120rare": 3159, "\u0120Please": 3401, "\u0120Rivera": 14272, "\u0120inject": 17951, "iple": 42420, "\u0120Romanian": 21624, "tainment": 43427, "\u0120Ike": 16952, "\u0120onstage": 20309, "eme": 17185, "ibles": 13352, "\u0120Limit": 34741, "ches": 5559, "\u0120fighter": 7251, "\u01201440": 41383, "\u0120Brun": 14277, "\u0120pubs": 27437, "FT": 11615, "\u0120barking": 35828, "outer": 44827, "\u00e3\u0125\u00b3\u00e3\u0124\u00b8": 49978, "\u0120soap": 13938, "manent": 39713, "erent": 21120, "\u0120seat": 2418, "\u0120presets": 45746, "\u0120protection": 2591, "nell": 13957, "\u0120exercised": 25316, "\u0120Github": 42546, "aunt": 20817, "\u0120examines": 26680, "\u0120Certified": 26426, "\u0120Skype": 10220, "\u0120detriment": 31969, "\u0120Tech": 4569, "\u0120fid": 31243, "\u0120sm": 5278, "\u0120educators": 15969, "\u0120tightly": 18412, "\u0120presidents": 9751, "\u0120summons": 26542, "beta": 44263, "\u0120submer": 45110, "\u0120proofs": 45322, "\u0120ATI": 46047, "\u0120Tas": 33048, "\u0120shouts": 32622, "ust": 4193, "\u0120admon": 32445, "\u0120Murdoch": 19636, "\u0120turtles": 27756, "ansom": 32387, "\u0120Quarterly": 31061, "\u0120Rubin": 25394, "ock": 3343, "\u0120Miz": 14688, "\u0120Affect": 37089, "Ven": 39043, "Matrix": 47360, "\u0120coordin": 31481, "ousy": 47482, "\u0120Chou": 31530, "\u0120alteration": 39752, "\u012096": 8971, "\u0120doom": 27833, "\u0120theological": 41021, "\u0120observed": 6373, "\u0120rad": 13206, "\u0120practitioner": 29764, "\u0120novice": 32219, "\u0120Sc": 2741, "cont": 10800, "\u0120confirmation": 7036, "\u0120Texans": 10818, "\u0120decree": 20156, "701": 39293, "mAh": 23516, "rences": 46957, "\u0120stomp": 30309, "gra": 33822, "\u0120materials": 3183, "ifact": 46460, "\u0120telesc": 45719, "\u0120pree": 39685, "\u0120sealing": 27677, "\u0120Loyal": 33872, "rit": 3961, "\u0120computed": 43547, "bon": 12573, "\u0120solves": 38846, "urg": 7150, "\u0120clone": 39511, "\u0120Dates": 32355, "\u0120rubble": 20814, "anted": 17184, "\u0120bag": 3298, "\u0120atmospheric": 24486, "\u0120ont": 25099, "\u0120Maine": 6488, "192": 29362, "\u0120reefs": 28919, "\u0120fmt": 49843, "\u0120View": 3756, "\u0120Communist": 12416, "\u0120praising": 21293, "\u0120Mahmoud": 23470, "\u0120discont": 47772, "\u0120buses": 8159, "\u0120vaginal": 34126, "\u0120impede": 32989, "\u0120diverse": 5544, "\u0120RELE": 36478, "301": 28167, "\u0120Link": 4341, "iper": 17453, "ikers": 24511, "\u0120castle": 22637, "\u0120Leopard": 41889, "ortment": 48174, "\u0120stitching": 39815, "inem": 10748, "\u0120nest": 15717, "\u0120Claude": 24575, "oros": 37904, "\u0120flashbacks": 37986, "aults": 37624, "\u0120Jordanian": 32572, "\u0120iPod": 31077, "\u0120DU": 21007, "Islamic": 28444, "Crystal": 42904, "\u0120horrendous": 29577, "\u0120Viking": 28530, "Her": 13584, "\u0120smoother": 31675, "\u0120sett": 34491, "\u0120Pepsi": 18127, "ber": 1943, "\u0120570": 22599, "ense": 9401, "FORM": 38036, "\u0120Continuous": 37737, "Ten": 28612, "packing": 37874, "outing": 25754, "\u0120disabilities": 10866, "\u0120baths": 28650, "\u0120Fox": 2063, "country": 12659, "\u0120294": 39846, "ocrats": 33335, "oppy": 45307, "\u0120Tokens": 47121, "\u0120Development": 2717, "\u0120Institutes": 27260, "\u0120negatively": 15708, "\u0120estab": 28769, "\u0120Conver": 36608, "eatures": 49847, "\u0120technically": 12684, "\u0120Mode": 22158, "goers": 15068, "\u0120shaping": 16383, "uff": 5865, "owe": 22034, "ensed": 25144, "ridden": 29112, "Danny": 36525, "\u0120McKenna": 23562, "\u0120obscene": 32433, "sharing": 12828, "\u0120heals": 43111, "\u0120Oliver": 7730, "\u0120Sony": 6366, "\u0120Honey": 13834, "\u0120subject": 2087, "\u0120disabled": 6242, "\u0120rab": 29841, "\u0120action": 814, "Edward": 45014, "\u0120Refresh": 37485, "Position": 46884, "\u0120eldest": 21023, "orthodox": 47144, "?????-?????-": 50179, "\u0120maple": 27287, "job": 30056, "\u0120restrained": 25063, "verages": 47939, "clad": 25769, "\u0120marginal": 14612, "\u0120preferring": 32182, "\u0120world": 232, "\u0120anticipated": 5291, "\u0120criticizing": 18384, "types": 41817, "Albert": 36977, "##": 48342, "\u0120electronically": 30319, "\u0120orphans": 38479, "hip": 4128, "\u0120GPU": 22794, "\u0120photographed": 16372, "\u0120Franks": 32676, "Cass": 40120, "inates": 34244, "\u0120redef": 28557, "\u0120Gran": 9328, "\u0120Romance": 39164, "\u0120Code": 8302, "\u01205000": 23221, "licensed": 26829, "\u0120fitted": 15898, "\u0120Subjects": 46812, "\u0114": 50128, "\u0120perl": 49135, "\u00c3\u00bc": 2768, "\u0120prisons": 14867, "tering": 14322, "\u0120Acceler": 27923, "vis": 9578, "\u0120supporters": 2732, "corruption": 17897, "root": 29059, "AMES": 29636, "316": 35092, "ms": 4339, "Spain": 36571, "\u0120contraceptive": 39068, "\u0120principals": 26047, "Virgin": 45865, "\u0120venerable": 38162, "\u0120Guardian": 8137, "\u0120assist": 3991, "Fr": 29220, "\u0120audits": 26723, "\u0120Nielsen": 14510, "aith": 22724, "\u0120Gators": 24978, "bert": 6747, "\u0120concentration": 11772, "\u0120cameo": 26000, "umbnail": 26201, "\u0120vocational": 28016, "264": 29137, "\u0120Availability": 36540, "\u0120Project": 3728, "_.": 47426, "othal": 49180, "\u0120locality": 36642, "\u0120loyal": 8259, "\u0120riots": 21224, "\u0120Participants": 16693, "directory": 48626, "\u0120linked": 3307, "ocating": 18106, "FAULT": 47697, "\u0120ident": 26702, "\u0120Kosovo": 20602, "\u0120Ramadan": 23828, "\u0120flap": 39742, "Bride": 23641, "\u0120shrug": 31691, "drivers": 44525, "cop": 30551, "number": 30695, "\u0120euph": 30882, "\u0120Because": 3047, "rig": 7638, "\u0120succ": 25047, "\u0120guerrilla": 35574, "techn": 21756, "\u0120Feb": 1927, "\u0120Con": 2585, "\u0120wondering": 8020, "\u0120humidity": 19849, "\u0120camera": 2280, "\u0120stats": 13076, "\u0120breath": 8016, "innamon": 47975, "\u0120chemicals": 8321, "\u0120bribe": 25677, "\u0120Rost": 30610, "\u0120sexist": 24758, "\u0120rankings": 8359, "\u0120connects": 15230, "forced": 25258, "\u0120complying": 27815, "etric": 25286, "\u0120BaseType": 50181, "alone": 22446, "\u0120vitri": 37417, "ledge": 21945, "hero": 19034, "repe": 36456, "InstoreAndOnline": 50227, "Up": 10926, "\u0120Hardware": 29575, "\u0120exagger": 33424, "\u0120cannabin": 49693, "\u0120moth": 38727, "\u0120exposure": 4895, "\u0120vein": 22090, "\u0120ebook": 43864, "1969": 45264, "aks": 6629, "\u0120Survival": 35854, "\u0120Names": 34557, "\u0120dispensary": 31646, "\u0120Kens": 15485, "ental": 13589, "\u0120window": 2931, "\u0120Nap": 7645, "\u0120cafeteria": 28538, "\u0120enrollment": 12510, "\u0120Kir": 11596, "\u0120resumed": 13168, "\u0120Goodwin": 22488, "\u0120ladder": 16348, "\u0120societal": 24032, "Contin": 28883, "Kids": 32180, "strings": 40563, "\u0120Credits": 36463, "\u0120Elon": 15104, "parency": 24470, "angering": 25913, "\u0120Mei": 42273, "ancial": 47142, "\u00f7": 50099, "\u0120latt": 39832, "\u0120Earth": 3875, "\u0120conceded": 11508, "ency": 6761, "\u0120vic": 32438, "\u0120virgin": 33799, "\u0120Eventually": 13777, "\u0120hypothesized": 45936, "\u0120unemploy": 47970, "News": 5532, "\u0120Heights": 9754, "\u0120kiss": 13301, "\u0120bathing": 30260, "\u0120Body": 13048, "\u0120beams": 28890, "quiet": 35750, "ribune": 14392, "\u0120Mexicans": 28957, "94": 6405, "\u0120Squad": 19200, "\u0120saddle": 31383, "\u0120nav": 31428, "576": 39617, "\u01201961": 20990, "\u0120Yiannopoulos": 34861, "\u0120Mister": 40972, "Games": 40656, "att": 2611, "\u0120cup": 4946, "\u0120Har": 2482, "alls": 12019, "oster": 13991, "\u0120Kul": 23860, "requently": 42615, "\u0120dynamics": 11043, "nine": 22255, "\u0120fle": 23618, "\u0120hemisphere": 32515, "\u0120Majority": 11982, "\u0120pass": 1323, "\u0120immigrants": 4175, "fl": 4825, "\u0120Feather": 25989, "\u0120charms": 40228, "\u0120Billboard": 18919, "\u0120distinctions": 41517, "RNA": 43612, "\u0120[|": 50084, "matter": 43956, "\u0120383": 42610, "\u0120Integration": 33219, "\u0120ll": 19385, "\u0120Caleb": 18824, "\u0120Weber": 15275, "\u0120dign": 19210, "ocated": 23283, "lings": 16283, "\u0120undeniable": 29941, "\u0120halls": 17236, "\u0120Kr": 10991, "examination": 33198, "arget": 45358, "\u0120fall": 1136, "\u0120meantime": 10299, "\u0120dimensional": 43654, "bytes": 46823, "\u0120grill": 20212, "urs": 4668, "iflower": 35051, "ophile": 35870, "\u0120wife": 1141, "atum": 15368, "wn": 11538, "\u0120decre": 33186, "\u0120SPACE": 44909, "ighty": 25529, "\u0120guiActiveUnfocused": 50166, "\u0120furthermore": 43681, "\u0120seizing": 27309, "thro": 26636, "Amazing": 41710, "\u0120Bastard": 47389, "\u0120tricky": 12792, "\u0120:=": 49614, "\u0120selfie": 13327, "\u0120Shanghai": 7137, "\u0120BUR": 37173, "social": 19027, "\u0120Benny": 30917, "\u0120va": 13205, "\u0120brethren": 41673, "\u0120hell": 7105, "\u0120crafted": 17626, "\u0120OR": 6532, "Jer": 25786,
[...]
